<pad>	0
<s>	0
</s>	0
<unk>	0
0	0
1	0
2	0
3	0
4	0
5	0
6	0
7	0
8	0
9	0
▁	-2.77368
,	-3.04147
.	-3.0484
▁a	-4.00236
▁v	-4.13153
▁se	-4.19776
▁na	-4.23516
▁je	-4.77609
▁že	-4.92736
▁s	-4.97889
m	-5.06584
▁z	-5.09791
▁"	-5.12936
▁to	-5.1481
a	-5.15686
▁o	-5.23712
▁do	-5.27301
▁i	-5.30389
,"	-5.42275
y	-5.46777
▁za	-5.52427
▁ale	-5.54092
i	-5.61865
▁pro	-5.63687
u	-5.64002
▁si	-5.67996
▁k	-5.71322
▁po	-5.75076
▁ve	-5.76359
ch	-5.80008
ho	-5.86302
▁by	-5.86984
:	-5.91784
▁(	-5.95644
▁od	-6.04473
▁podle	-6.0802
o	-6.08782
▁tak	-6.09553
▁jako	-6.19567
▁už	-6.24927
▁jsou	-6.27249
▁jsem	-6.27594
▁které	-6.27732
▁u	-6.27943
em	-6.30627
▁který	-6.3328
▁také	-6.42451
▁bude	-6.44183
▁nebo	-6.45154
▁při	-6.50476
mi	-6.50632
▁-	-6.52515
▁jen	-6.53953
?	-6.54107
)	-6.54881
▁má	-6.55107
▁co	-6.57361
▁až	-6.58067
-	-6.58801
▁jeho	-6.61454
▁jak	-6.63616
▁před	-6.64311
▁jsme	-6.6447
▁byl	-6.64972
▁ne	-6.65519
▁když	-6.67277
ů	-6.67388
▁aby	-6.68985
"	-6.70575
▁která	-6.71848
e	-6.75785
▁ze	-6.76964
▁než	-6.79408
ou	-6.82758
▁však	-6.8474
s	-6.85919
▁pak	-6.86304
▁není	-6.87617
▁být	-6.92614
▁bylo	-6.93516
▁ještě	-6.94562
▁korun	-6.96148
í	-6.97449
á	-6.97547
▁ani	-6.99258
v	-6.99503
▁byla	-7.02575
▁řekl	-7.02802
▁let	-7.02918
▁další	-7.03015
é	-7.03672
ová	-7.04644
▁či	-7.05195
te	-7.05369
▁kde	-7.06642
me	-7.09727
▁tím	-7.10373
▁mezi	-7.10583
▁vy	-7.12875
."	-7.13003
ka	-7.14704
▁jejich	-7.16387
▁roce	-7.18085
▁kteří	-7.19641
▁roku	-7.19746
▁své	-7.20043
▁může	-7.20414
mu	-7.21629
▁více	-7.23785
▁například	-7.24267
▁pokud	-7.25059
▁–	-7.26087
▁první	-7.26703
▁kdy	-7.28101
▁ho	-7.28491
ové	-7.292
na	-7.2994
▁pod	-7.32086
▁protože	-7.32588
▁tom	-7.33933
▁tam	-7.35378
ní	-7.359
▁mají	-7.35996
▁měl	-7.36135
▁budou	-7.37159
▁tedy	-7.37488
▁lidí	-7.37576
▁bez	-7.37859
ky	-7.3872
▁uvedl	-7.38957
▁proti	-7.39395
▁proto	-7.39772
).	-7.399
▁mu	-7.41637
▁třeba	-7.42101
▁tomu	-7.42787
▁totiž	-7.43348
▁ji	-7.45554
▁již	-7.46676
▁mi	-7.47057
▁přes	-7.47501
▁velmi	-7.48013
▁toho	-7.48667
▁něj	-7.48879
▁tu	-7.51907
▁asi	-7.52824
▁zde	-7.52949
▁kvůli	-7.53137
ku	-7.55156
ý	-7.55516
▁lidé	-7.55577
▁mít	-7.55923
▁mě	-7.56347
▁ke	-7.5694
▁dva	-7.58126
▁tři	-7.59542
▁nás	-7.60387
▁dnes	-7.60694
ě	-7.61346
▁právě	-7.61554
t	-7.62365
▁nad	-7.63659
▁mluvčí	-7.63765
▁tisíc	-7.63821
ce	-7.64859
▁nyní	-7.65521
▁ten	-7.67537
k	-7.68367
ž	-7.68826
▁její	-7.68924
z	-7.69061
),	-7.70471
▁zatím	-7.71121
▁navíc	-7.71807
▁nich	-7.71868
▁což	-7.71943
▁musí	-7.72557
▁pouze	-7.72911
ně	-7.73095
▁procent	-7.73372
▁jeden	-7.73377
▁české	-7.75271
▁několik	-7.75955
▁jim	-7.76061
ná	-7.76758
li	-7.78074
▁policie	-7.78516
ech	-7.79571
/	-7.80145
je	-7.80178
▁byly	-7.80578
▁nic	-7.80787
▁měla	-7.81772
▁mohou	-7.82568
▁všechny	-7.84445
▁případě	-7.84742
▁říká	-7.85132
▁kterou	-7.85617
▁nám	-7.85671
ovou	-7.87183
ovi	-7.87799
▁místo	-7.87972
nou	-7.88241
▁době	-7.88252
▁rok	-7.88559
▁něco	-7.89088
▁stále	-7.89359
▁ní	-7.89885
▁jste	-7.91553
cz	-7.92662
▁ta	-7.9276
ne	-7.93018
né	-7.93695
▁jde	-7.94145
▁kolem	-7.94386
▁já	-7.9447
▁společnosti	-7.94771
▁ty	-7.9491
▁prý	-7.95124
l	-7.95666
▁během	-7.96432
▁nové	-7.96638
▁měli	-7.97544
▁dvě	-7.98161
▁této	-7.98585
▁vás	-7.98685
▁pře	-7.98854
▁takže	-7.99073
▁letech	-7.99791
▁teď	-8.0001
n	-8.00158
▁dodal	-8.00558
ých	-8.00613
▁práce	-8.00949
▁stejně	-8.01083
▁dalších	-8.02748
▁tento	-8.03766
▁zda	-8.04011
▁přitom	-8.04339
▁dvou	-8.04528
▁vám	-8.04545
d	-8.05456
▁především	-8.06232
▁roz	-8.06235
▁kdo	-8.06327
po	-8.06961
".	-8.07036
ek	-8.07147
cí	-8.073
▁díky	-8.07583
▁milionů	-8.07813
▁děti	-8.08469
▁města	-8.08683
ovat	-8.09027
▁poslední	-8.09294
ových	-8.09387
▁vůbec	-8.09414
▁každý	-8.09537
kou	-8.10103
▁zhruba	-8.1127
▁den	-8.11681
▁strany	-8.12617
to	-8.13058
▁peníze	-8.13522
▁jiné	-8.14071
▁možné	-8.15149
▁dobře	-8.15163
š	-8.15699
▁svou	-8.15842
▁můžete	-8.16118
c	-8.16175
▁byli	-8.16703
ci	-8.16877
▁ovšem	-8.17088
▁lze	-8.17383
▁kč	-8.17384
▁sice	-8.17443
▁jí	-8.17833
▁dokonce	-8.18056
▁bych	-8.18417
ské	-8.18441
▁letos	-8.18866
▁téměř	-8.19113
▁pět	-8.19255
▁svého	-8.20085
▁stát	-8.20354
▁čtyři	-8.20547
▁svých	-8.21266
▁všech	-8.21336
▁nakonec	-8.21394
▁poté	-8.21988
▁často	-8.22194
▁chce	-8.2308
ská	-8.23103
▁hodně	-8.23392
▁moc	-8.24078
▁vše	-8.24123
▁soud	-8.24472
▁část	-8.25142
▁naopak	-8.26179
▁loni	-8.2642
▁hlavně	-8.28186
▁firmy	-8.28309
▁kromě	-8.28467
▁víc	-8.28542
▁jan	-8.28892
▁vlastní	-8.30278
▁uvedla	-8.30326
▁svůj	-8.30562
▁mohl	-8.30584
▁nejen	-8.30649
▁velké	-8.31185
▁patří	-8.32397
▁tady	-8.32525
▁problém	-8.3253
ný	-8.33448
▁země	-8.33753
▁proč	-8.34359
it	-8.348
▁půl	-8.36063
▁mimo	-8.36144
▁jednání	-8.36207
▁několika	-8.3701
▁hodin	-8.37407
▁samozřejmě	-8.37776
▁místě	-8.37993
▁nebude	-8.38172
▁zároveň	-8.38178
▁státní	-8.38206
▁některé	-8.38314
▁větší	-8.38566
▁hlavní	-8.38901
▁té	-8.38928
uje	-8.39143
▁nemá	-8.39149
la	-8.39238
▁vedení	-8.39391
▁práci	-8.39555
ům	-8.39639
▁pár	-8.3964
ový	-8.39827
ský	-8.39894
▁opravdu	-8.40089
▁soudu	-8.40147
▁později	-8.40218
▁praze	-8.4024
▁petr	-8.40242
▁stojí	-8.40379
▁zase	-8.40559
▁možná	-8.41082
▁přímo	-8.41381
r	-8.41639
▁sám	-8.42067
▁druhé	-8.42148
▁tehdy	-8.42229
▁celé	-8.42881
▁prezident	-8.42923
ého	-8.4297
▁příliš	-8.43077
▁řekla	-8.43104
▁informace	-8.43767
ování	-8.43802
▁hned	-8.43936
h	-8.43962
▁tvrdí	-8.44159
▁společnost	-8.44176
za	-8.44207
▁části	-8.44226
▁ods	-8.44504
▁možnost	-8.44536
▁největší	-8.45024
▁nejsou	-8.45135
▁vždy	-8.45265
▁situace	-8.45617
▁jednoho	-8.46455
▁jej	-8.46459
▁chvíli	-8.46652
ově	-8.46887
▁zcela	-8.47109
▁člověk	-8.47217
▁nikdy	-8.47463
p	-8.47597
pro	-8.47706
▁město	-8.48081
▁nový	-8.48417
▁dál	-8.4852
▁roky	-8.48604
▁muž	-8.48704
▁mám	-8.49297
▁dobu	-8.49989
▁sebe	-8.50036
▁řízení	-8.50081
▁máme	-8.5026
▁počet	-8.50527
ují	-8.50538
▁rozhodnutí	-8.50711
▁svým	-8.50798
▁ti	-8.51053
▁deset	-8.51184
▁jednou	-8.51358
▁tomto	-8.51565
▁čas	-8.51706
▁čssd	-8.51998
▁mělo	-8.52206
▁ředitel	-8.52336
▁něm	-8.52384
▁trochu	-8.52505
▁ano	-8.52527
▁vlády	-8.52714
▁jinak	-8.52804
▁jestli	-8.52938
▁věci	-8.53001
▁zejména	-8.53109
▁život	-8.5345
▁nikdo	-8.53482
▁včetně	-8.53503
▁všichni	-8.53595
▁ministr	-8.5368
▁tohoto	-8.5387
▁my	-8.54704
▁tyto	-8.5502
▁všechno	-8.55111
▁šéf	-8.55359
▁opět	-8.55388
do	-8.55467
▁někdo	-8.55653
▁situaci	-8.5646
...	-8.56603
▁lety	-8.5666
▁žádné	-8.56953
▁celý	-8.57046
▁systém	-8.57133
ách	-8.5723
▁on	-8.5763
▁firma	-8.57859
▁dříve	-8.57866
b	-8.58142
no	-8.58146
▁zemi	-8.58353
▁spolu	-8.58495
▁úplně	-8.58902
▁tuto	-8.58975
▁těchto	-8.58985
▁jiří	-8.59259
ova	-8.59871
▁oblasti	-8.60584
▁podporu	-8.60933
▁de	-8.61845
▁týden	-8.62003
▁usa	-8.62101
▁vláda	-8.62135
▁čr	-8.62317
x	-8.62462
▁zřejmě	-8.62648
ny	-8.62659
ta	-8.63661
▁nemocnice	-8.63807
▁mohli	-8.64108
▁méně	-8.64458
▁posledních	-8.64622
▁problémy	-8.64879
▁služby	-8.6501
▁cenu	-8.65476
▁šest	-8.659
▁jedna	-8.66125
▁procenta	-8.6621
▁mnoho	-8.66992
▁celkem	-8.67278
▁září	-8.67284
▁ceny	-8.67473
▁měly	-8.67474
▁světa	-8.67566
▁tato	-8.68116
▁znovu	-8.68251
▁dostal	-8.68261
ým	-8.69128
▁některých	-8.69206
j	-8.6925
▁dále	-8.6951
▁zařízení	-8.6954
▁prostředí	-8.69975
▁přesto	-8.70069
▁svém	-8.70069
▁policisté	-8.70088
▁nebyl	-8.70256
▁zatímco	-8.70328
▁doby	-8.70596
▁těch	-8.71078
▁minut	-8.71393
▁bychom	-8.71435
▁začátku	-8.71442
▁lidi	-8.71661
▁ním	-8.71758
▁takové	-8.71888
▁metrů	-8.72047
▁trhu	-8.72087
▁dětí	-8.72102
▁kdyby	-8.72114
▁ženy	-8.7251
▁případ	-8.72631
vy	-8.7284
▁auto	-8.7297
▁většina	-8.73048
▁cena	-8.73075
▁mohla	-8.73405
▁pěti	-8.73546
▁třetí	-8.7355
cích	-8.73625
▁prohlásil	-8.7374
ných	-8.74227
▁rámci	-8.74253
▁dlouho	-8.74264
▁jich	-8.74364
ského	-8.74539
▁tří	-8.74593
",	-8.75102
▁vlastně	-8.75186
▁většinou	-8.75189
▁informací	-8.75231
▁rovněž	-8.75235
▁spíše	-8.75392
▁akce	-8.75991
▁ministerstvo	-8.76142
▁určitě	-8.76263
▁naše	-8.76557
▁česku	-8.76577
▁jedno	-8.76672
▁dosud	-8.76801
▁místa	-8.77205
▁vyšší	-8.77329
▁policejní	-8.77331
ni	-8.77652
▁platí	-8.77756
▁domu	-8.7794
▁dost	-8.78488
▁nového	-8.78564
▁světě	-8.78568
č	-8.7863
▁období	-8.78794
▁školy	-8.78858
▁lepší	-8.78956
▁nabízí	-8.79318
▁předseda	-8.79367
▁poprvé	-8.79416
▁zájem	-8.79565
▁jedné	-8.79648
▁kam	-8.79802
▁řešení	-8.79848
▁českých	-8.79872
ských	-8.79878
▁evropské	-8.79938
▁miliardy	-8.80326
▁skutečně	-8.80352
▁nevy	-8.80514
▁dá	-8.8109
▁budeme	-8.81244
▁základní	-8.81284
▁sociální	-8.81564
skou	-8.81623
▁konce	-8.81719
▁prahy	-8.82021
se	-8.82161
▁velký	-8.82342
▁eu	-8.8241
▁podařilo	-8.82543
ko	-8.82634
▁mnohem	-8.82669
▁prostor	-8.82717
▁někdy	-8.8288
▁nebylo	-8.82975
vá	-8.82986
▁martin	-8.8307
▁celou	-8.83173
▁zahraničí	-8.83207
▁jednu	-8.83428
ového	-8.84006
▁e	-8.84221
▁ministerstva	-8.84343
▁okolí	-8.84427
▁hry	-8.84479
▁pondělí	-8.84482
▁musíte	-8.84705
▁státu	-8.84952
▁nimi	-8.84981
ve	-8.85087
in	-8.85209
▁níž	-8.85269
▁máte	-8.85521
▁ně	-8.85801
ková	-8.85982
▁chtěl	-8.85984
▁začal	-8.86108
▁žena	-8.8624
▁zemí	-8.86313
▁finanční	-8.87066
▁prvním	-8.87102
▁g	-8.87151
▁sebou	-8.87296
▁kilometrů	-8.8746
▁program	-8.87591
▁pátek	-8.87802
▁jehož	-8.87875
▁oba	-8.88087
▁osm	-8.88164
▁jenže	-8.88166
▁zákona	-8.88507
nu	-8.88712
ji	-8.88796
▁nejlepší	-8.88799
▁pan	-8.88899
▁alespoň	-8.88973
▁česká	-8.89067
g	-8.89261
oval	-8.89783
▁prezidenta	-8.89829
le	-8.89935
▁místní	-8.90063
▁současné	-8.90109
▁peněz	-8.90189
▁sobě	-8.90263
▁úřadu	-8.90323
▁prostě	-8.90562
▁pavel	-8.90626
▁množství	-8.90723
▁projekt	-8.90964
er	-8.91029
▁rychle	-8.91107
▁chtějí	-8.91248
▁konci	-8.91505
▁sto	-8.91648
▁náměstí	-8.91874
en	-8.92297
▁návrh	-8.92596
▁nových	-8.92819
▁b	-8.92868
▁mohlo	-8.9295
▁myslím	-8.93023
▁rozhodně	-8.9305
▁vody	-8.93056
▁rád	-8.93133
▁domů	-8.93224
▁doma	-8.93502
▁premiér	-8.9367
▁nejvíce	-8.93727
▁kterých	-8.93907
▁jež	-8.9392
od	-8.94057
▁pomocí	-8.9406
▁století	-8.94161
▁rozdíl	-8.94176
▁miliard	-8.94181
▁středu	-8.94263
▁dítě	-8.94308
▁údajně	-8.94364
▁večer	-8.94368
▁někteří	-8.94426
al	-8.94637
▁druhý	-8.94857
▁dobré	-8.95044
▁auta	-8.95107
▁straně	-8.9521
▁nějaké	-8.95293
ští	-8.9534
▁dostat	-8.95451
▁ulici	-8.95479
▁republiky	-8.95954
▁snaží	-8.95981
lo	-8.96054
▁území	-8.96165
▁druhou	-8.96267
▁podobně	-8.96285
▁nicméně	-8.96393
▁snad	-8.96484
▁jaké	-8.96671
▁pomoc	-8.9672
▁žádný	-8.96806
▁nej	-8.96941
▁dělat	-8.96953
▁znamená	-8.96986
▁systému	-8.96988
▁městě	-8.97247
▁listopadu	-8.97304
▁toto	-8.97366
▁the	-8.97477
▁času	-8.97649
▁součástí	-8.97741
ř	-8.9778
▁kraji	-8.97894
ám	-8.9825
▁pomoci	-8.98288
▁sedm	-8.98296
▁přesně	-8.98397
▁český	-8.984
▁ať	-8.98424
▁kterým	-8.98599
▁postupně	-8.99047
▁d	-8.99257
▁milionu	-8.99366
▁sobotu	-8.99493
▁dolarů	-8.99515
▁kterého	-8.99838
▁velkou	-9.00078
▁ostatní	-9.00119
ra	-9.00228
▁minulosti	-9.00405
co	-9.00448
▁dodává	-9.00459
▁zákon	-9.00521
▁výrazně	-9.00523
▁čeká	-9.00556
▁skupiny	-9.00621
▁nemůže	-9.00626
▁úterý	-9.00884
▁muže	-9.01076
▁života	-9.01083
▁starosta	-9.01104
st	-9.01109
▁ráno	-9.01298
▁způsobem	-9.01587
▁vedle	-9.0168
▁nichž	-9.01808
ovým	-9.0181
▁vězení	-9.02012
kem	-9.0253
ův	-9.0259
▁programu	-9.02877
▁dispozici	-9.0313
▁moci	-9.03378
více	-9.03419
▁dvěma	-9.0367
▁stavu	-9.03677
▁pracovní	-9.03696
▁věc	-9.04211
▁jasné	-9.04267
▁fotogalerii	-9.04303
▁kolik	-9.04377
▁dům	-9.04506
▁muži	-9.0452
▁pořád	-9.04636
▁tým	-9.04665
▁vidět	-9.04962
▁hodiny	-9.05046
▁nová	-9.05105
▁ni	-9.05116
▁poměrně	-9.05208
▁čtvrtek	-9.05233
▁jedná	-9.05522
▁kraje	-9.05606
▁p	-9.05639
▁jedním	-9.05891
ty	-9.05986
▁jana	-9.06124
▁musel	-9.06246
ba	-9.0645
▁úřad	-9.0654
▁měsíců	-9.06876
▁deseti	-9.06885
▁hra	-9.07069
▁řada	-9.07089
▁vysvětluje	-9.07194
▁sami	-9.07558
▁různých	-9.07573
▁neza	-9.07611
▁projektu	-9.07618
lí	-9.07674
pokud	-9.0777
▁nejvyšší	-9.0781
▁obou	-9.08082
▁komise	-9.08101
▁stranu	-9.0834
▁stav	-9.08441
▁nepo	-9.08501
▁nemají	-9.08513
▁budete	-9.08515
▁roli	-9.08609
▁začala	-9.08785
▁českého	-9.08865
il	-9.08966
▁lidem	-9.09002
▁takový	-9.09211
▁organizace	-9.09231
▁hrozí	-9.09392
▁jiných	-9.09596
▁výsledky	-9.09676
▁praha	-9.09996
▁malé	-9.10036
podle	-9.10119
▁domácí	-9.10136
ze	-9.10161
▁stal	-9.1017
▁muset	-9.1034
▁základě	-9.10787
▁příští	-9.10829
▁teprve	-9.10867
at	-9.1121
▁řadu	-9.11235
▁můžeme	-9.11321
▁zástupce	-9.11513
▁málo	-9.11647
▁získat	-9.11653
.)	-9.11962
ře	-9.11979
▁došlo	-9.12064
▁čtyř	-9.12525
▁tomáš	-9.12569
▁dny	-9.12766
▁bohužel	-9.1286
▁přišel	-9.12879
▁provoz	-9.1316
▁sama	-9.13431
▁kraj	-9.13464
▁naší	-9.1351
▁tolik	-9.1354
tu	-9.13919
▁důležité	-9.1399
jí	-9.14403
ích	-9.1444
▁videa	-9.14445
▁svět	-9.14744
▁výši	-9.14858
f	-9.149
ly	-9.15192
▁nutné	-9.15212
▁pohled	-9.15462
▁x	-9.15646
▁nějaký	-9.15839
▁opatření	-9.16043
▁dalším	-9.16137
▁internetu	-9.16505
ného	-9.16522
▁mnoha	-9.16651
▁nebyla	-9.16751
▁evropě	-9.1678
▁věcí	-9.16938
▁jenom	-9.17246
▁čtěte	-9.17247
▁potřeba	-9.17303
▁model	-9.17429
▁dodala	-9.17498
▁vysvětlil	-9.17558
▁republice	-9.17586
▁museli	-9.17637
▁novou	-9.17653
▁unie	-9.17695
▁velká	-9.17891
▁rodiče	-9.17995
▁národní	-9.17996
▁nelze	-9.1808
▁noci	-9.18214
▁zpět	-9.18255
ec	-9.18286
▁neděli	-9.18314
▁jiného	-9.18505
▁financí	-9.1851
▁společně	-9.1852
ami	-9.18625
▁udělat	-9.18874
▁šlo	-9.18883
▁ob	-9.19095
▁míst	-9.19103
▁rodiny	-9.19565
▁jiný	-9.19647
▁re	-9.19697
▁obyvatel	-9.19793
▁jenž	-9.1988
▁vzhledem	-9.19881
▁původně	-9.2027
když	-9.206
nost	-9.20669
▁stran	-9.20697
▁původní	-9.20791
▁právo	-9.20948
ků	-9.20994
▁ledna	-9.21065
▁obě	-9.21131
▁dopravní	-9.21448
▁eur	-9.21523
▁náklady	-9.21565
▁podmínky	-9.21737
ma	-9.21781
▁lépe	-9.21857
▁dní	-9.21903
▁neměl	-9.2216
▁taky	-9.22222
▁měsíce	-9.22414
▁desítky	-9.22785
▁jejím	-9.22833
▁spíš	-9.22853
▁věku	-9.22956
▁stačí	-9.22996
▁následně	-9.22996
ost	-9.23092
▁bývalý	-9.23158
▁najdete	-9.23333
▁pocit	-9.23436
▁nez	-9.236
▁televize	-9.23629
▁přijde	-9.23668
▁cestu	-9.23739
▁vydání	-9.23777
▁agentury	-9.23799
ovali	-9.23875
▁trest	-9.23952
▁ministra	-9.23958
▁nově	-9.24004
▁radnice	-9.2405
▁dnech	-9.24076
▁smlouvy	-9.24239
▁telefon	-9.24317
▁provozu	-9.24333
▁sdělil	-9.24341
ovy	-9.24445
ie	-9.24593
▁klubu	-9.24619
▁vysoké	-9.24631
▁hrát	-9.24833
▁f	-9.24834
▁vedoucí	-9.24903
▁zdravotní	-9.25293
▁dne	-9.25302
▁idnes	-9.2532
▁tisíce	-9.2532
ká	-9.25469
▁šesti	-9.25499
▁menší	-9.25504
▁nemusí	-9.25575
▁potvrdil	-9.25606
▁centra	-9.25731
▁skoro	-9.26188
nější	-9.26207
▁potom	-9.26345
ované	-9.26447
▁la	-9.26471
ti	-9.26502
▁týmu	-9.26736
▁stalo	-9.26981
▁vede	-9.27016
▁různé	-9.27042
▁rady	-9.27131
▁občas	-9.27313
▁vůči	-9.27618
▁působí	-9.277
▁práva	-9.27792
▁top	-9.27889
▁akci	-9.27897
▁přístup	-9.27966
▁banky	-9.28377
▁dal	-9.28406
▁rozhodl	-9.28478
▁naprosto	-9.2858
▁jít	-9.28729
▁stejné	-9.28795
▁čím	-9.28826
▁musíme	-9.28911
▁podobné	-9.29105
▁žen	-9.29109
▁budu	-9.29132
▁neu	-9.29165
▁škoda	-9.29366
▁služeb	-9.29447
▁bodů	-9.29787
vě	-9.29797
▁dvacet	-9.29865
▁strana	-9.30142
▁jméno	-9.30207
▁nejprve	-9.30283
▁napsal	-9.30367
▁změny	-9.30397
zobrazit	-9.3046
▁her	-9.30583
▁funkce	-9.30711
▁vypadá	-9.30721
▁začne	-9.30822
▁osobní	-9.30884
▁aut	-9.30921
▁oddělení	-9.31077
▁postup	-9.31176
▁počasí	-9.31238
▁zobrazení	-9.31261
▁abychom	-9.3133
▁chtěli	-9.31376
▁t	-9.31564
▁nedávno	-9.3181
nice	-9.31837
▁šanci	-9.31942
▁speciální	-9.32016
▁sdružení	-9.32166
▁cílem	-9.32221
▁vaše	-9.32257
ným	-9.32336
▁říct	-9.32337
▁přece	-9.32452
▁zeman	-9.32643
▁souvislosti	-9.3265
▁hlavním	-9.32714
▁mezinárodní	-9.32804
▁nejméně	-9.32874
▁vyšetřování	-9.32985
▁trh	-9.33185
▁jistě	-9.33384
▁velice	-9.33393
▁úřady	-9.33522
▁mohly	-9.33686
lé	-9.33766
man	-9.33779
▁tvoří	-9.33809
▁června	-9.33823
▁daleko	-9.33849
▁nadále	-9.33918
▁ročně	-9.3394
▁důvod	-9.34043
▁dopravy	-9.34097
▁uvádí	-9.34224
▁řešit	-9.3429
▁nijak	-9.34339
▁zápas	-9.34629
▁hnutí	-9.34751
▁května	-9.34782
▁spolupráci	-9.34943
▁minulý	-9.35
▁skupina	-9.35037
▁byste	-9.35098
▁prakticky	-9.35464
▁možnosti	-9.35499
▁všem	-9.35559
▁firem	-9.35594
▁přibližně	-9.35711
tě	-9.35787
▁nižší	-9.35793
čí	-9.35822
▁volby	-9.35974
on	-9.36109
▁zdraví	-9.36142
▁případně	-9.36365
▁podíl	-9.36531
▁celá	-9.36612
▁kterém	-9.36794
▁h	-9.36798
▁měsíc	-9.36884
▁dostala	-9.36951
▁řidič	-9.36996
▁utkání	-9.37014
▁našich	-9.3736
▁václav	-9.37416
▁střední	-9.37623
▁starší	-9.3763
▁počtu	-9.37637
při	-9.37793
▁oproti	-9.37797
▁neboť	-9.38069
▁najít	-9.3807
▁října	-9.38117
ov	-9.38146
▁března	-9.38277
▁americké	-9.3847
▁nejde	-9.38473
▁prostřednictvím	-9.38578
▁rádi	-9.38621
▁každé	-9.38864
▁fakt	-9.38878
▁začíná	-9.38944
▁upozornil	-9.39075
▁prostoru	-9.394
ří	-9.39533
▁prohlášení	-9.39563
▁nebudou	-9.39636
▁zranění	-9.3975
▁němž	-9.39824
▁doplnil	-9.39838
▁bezpečnostní	-9.39945
▁volební	-9.39945
▁názor	-9.39983
▁petra	-9.40077
že	-9.40161
▁začít	-9.40256
▁devět	-9.40275
▁člověka	-9.4036
▁nes	-9.40408
▁slov	-9.40503
▁pražské	-9.40642
▁stavební	-9.40648
▁denně	-9.40827
▁lékaři	-9.4085
▁soutěže	-9.40956
▁volbách	-9.40968
▁zprávy	-9.40982
▁verze	-9.41052
is	-9.41137
▁jednom	-9.41198
▁škol	-9.41254
ovala	-9.4127
ými	-9.4128
▁dubna	-9.4129
▁silnice	-9.4129
ň	-9.41387
▁nemocnici	-9.41388
da	-9.41395
▁pokračovat	-9.41414
▁výše	-9.41666
▁dát	-9.41669
▁evropy	-9.41857
▁stanice	-9.42002
▁obce	-9.42013
▁filmu	-9.42049
▁číslo	-9.42087
▁pracovat	-9.42132
▁podobě	-9.42138
▁popsal	-9.42163
▁cesty	-9.42272
▁pojištění	-9.42276
▁stala	-9.42284
▁dostali	-9.42285
▁josef	-9.42326
▁new	-9.42362
▁způsob	-9.42575
▁případech	-9.42626
▁policii	-9.42754
▁místech	-9.42979
▁výsledek	-9.42995
▁přestože	-9.43081
▁směrem	-9.43198
▁jaroslav	-9.43253
ru	-9.4329
▁výkon	-9.43315
pa	-9.4362
▁platit	-9.43754
▁využít	-9.43929
▁získal	-9.44028
▁michal	-9.44114
▁osob	-9.4413
ické	-9.44163
▁krátce	-9.44226
už	-9.44296
▁takto	-9.44382
▁slova	-9.44442
▁polovině	-9.44453
▁cen	-9.44539
▁film	-9.44602
▁zapnutou	-9.44746
▁odpoledne	-9.44796
▁dnešní	-9.45103
▁okolo	-9.45134
▁pravděpodobně	-9.45385
▁začali	-9.45466
▁majitel	-9.45503
▁mobilní	-9.45506
▁řadě	-9.45591
▁javascriptu	-9.45728
kové	-9.4574
▁průběhu	-9.45804
▁česko	-9.45851
▁zástupci	-9.45878
▁c	-9.45967
▁války	-9.45977
ice	-9.46264
ale	-9.46472
▁centru	-9.46472
▁r	-9.46558
vý	-9.46614
▁brzy	-9.47043
▁ba	-9.47062
▁jejichž	-9.47167
jší	-9.47211
▁těžké	-9.47297
▁okamžitě	-9.47566
▁městské	-9.47792
▁případu	-9.47872
▁koncem	-9.47938
▁vždycky	-9.47976
▁jednotlivých	-9.48129
▁dnů	-9.4821
▁vliv	-9.48273
▁současnosti	-9.48385
▁nějakou	-9.48628
w	-9.4865
▁tentokrát	-9.48666
▁právu	-9.48739
▁autor	-9.48813
▁žije	-9.48824
lá	-9.49046
▁telefonu	-9.49075
▁vnitra	-9.49121
▁funguje	-9.4913
▁náš	-9.49196
▁zůstává	-9.49387
▁odmítl	-9.49414
▁voda	-9.49421
▁abych	-9.49435
▁stovky	-9.49437
▁funkci	-9.49489
▁prosince	-9.49557
▁miliónů	-9.49596
kách	-9.49699
▁agentura	-9.49901
▁němu	-9.49968
▁buď	-9.50032
ním	-9.50072
▁nedo	-9.50513
▁tzv	-9.50615
▁svými	-9.50717
▁přišla	-9.50808
ček	-9.5085
▁areálu	-9.51231
▁pracuje	-9.5125
▁mf	-9.51255
▁smrti	-9.51296
▁kole	-9.51328
▁čech	-9.51346
▁můj	-9.51484
▁zboží	-9.51613
fi	-9.51732
va	-9.51783
▁docela	-9.51787
▁dvakrát	-9.51795
▁července	-9.5184
▁voleb	-9.51853
my	-9.51884
▁miroslav	-9.5192
▁sítě	-9.52001
▁ruce	-9.52057
▁výrobce	-9.52122
▁zrovna	-9.52176
▁typu	-9.52189
▁letošního	-9.52363
▁rukou	-9.52368
▁chceme	-9.52436
▁světové	-9.52438
sko	-9.52476
re	-9.52549
▁obrany	-9.52591
▁několikrát	-9.52668
▁sedmi	-9.52738
ú	-9.52762
▁brně	-9.52786
▁nechce	-9.52806
▁in	-9.52993
▁státy	-9.53034
▁žádná	-9.53214
▁těžko	-9.5327
▁předtím	-9.53384
▁dostane	-9.5345
če	-9.53474
▁vítězství	-9.53483
lu	-9.5355
▁zaměstnanců	-9.53586
▁trenér	-9.53697
▁srpna	-9.53848
an	-9.53937
▁tímto	-9.54055
▁obvykle	-9.54198
▁loňského	-9.54237
▁cesta	-9.54312
▁myslí	-9.54345
▁prvních	-9.54348
▁minimálně	-9.54419
tí	-9.54506
▁letošní	-9.54666
▁celého	-9.54809
de	-9.54888
▁nim	-9.54889
di	-9.54941
▁prvního	-9.54946
▁raději	-9.55091
▁setkání	-9.55215
▁životní	-9.55309
nosti	-9.5574
▁jediný	-9.55831
▁léta	-9.55842
▁nevím	-9.55906
▁většinu	-9.55913
▁rozpočtu	-9.55924
▁zkušenosti	-9.55955
▁kvalitní	-9.56141
▁důvodů	-9.56394
▁dokáže	-9.56459
▁www	-9.56459
▁vládní	-9.56649
▁konkrétní	-9.56665
▁chybí	-9.56706
ha	-9.5682
sa	-9.56852
▁podstatě	-9.56888
▁budovy	-9.56944
▁svoji	-9.5701
▁veřejné	-9.57056
▁zdarma	-9.57062
▁karel	-9.57069
▁politické	-9.57091
▁taková	-9.57172
▁náměstek	-9.57223
▁politiky	-9.57287
▁stavby	-9.57289
▁no	-9.57362
▁boj	-9.57538
▁vývoj	-9.576
▁zdroj	-9.57634
▁mužů	-9.57723
▁david	-9.57742
▁celém	-9.57779
ém	-9.57793
▁tohle	-9.57992
▁rodina	-9.58019
▁útoku	-9.58069
▁of	-9.58088
▁poznamenal	-9.58108
▁dlouhodobě	-9.5827
▁naši	-9.58295
ší	-9.58342
▁al	-9.58512
▁jednat	-9.58518
es	-9.58632
▁podotkl	-9.58738
▁členů	-9.58765
▁jaký	-9.58793
▁pravda	-9.58832
▁příběh	-9.58872
ující	-9.59084
ing	-9.59248
▁píše	-9.5926
▁čele	-9.59294
▁neo	-9.59429
▁windows	-9.59549
▁moje	-9.59619
dě	-9.59784
▁delší	-9.59905
tá	-9.59984
▁klaus	-9.60078
▁dobrý	-9.60082
▁ředitele	-9.6032
▁případů	-9.60652
▁nějak	-9.60672
jak	-9.60701
▁žádnou	-9.60954
ická	-9.61053
▁druhá	-9.6115
▁parku	-9.61196
▁popisuje	-9.61362
ři	-9.61452
▁nechal	-9.61456
si	-9.61585
▁výběr	-9.61734
▁deníku	-9.61796
▁jižní	-9.61926
▁možností	-9.62004
▁tiskové	-9.62006
▁regionální	-9.62068
▁chcete	-9.62116
▁motor	-9.62126
▁hasiči	-9.62172
▁plánu	-9.62173
▁ústavu	-9.62217
▁vrátit	-9.62226
▁obchodní	-9.62257
▁veřejnosti	-9.62292
▁problémů	-9.62326
ovaná	-9.62332
▁velkých	-9.62355
▁českou	-9.62372
▁špatně	-9.624
mo	-9.62492
▁musela	-9.62615
sky	-9.62714
▁soudní	-9.62739
▁tehdejší	-9.62757
▁mně	-9.6296
ry	-9.62967
▁počítá	-9.63106
▁š	-9.63169
▁hlasů	-9.63217
▁paní	-9.63438
?"	-9.63445
▁zdravotnictví	-9.63549
▁pohledu	-9.63592
▁hře	-9.63645
▁l	-9.63682
ací	-9.63708
▁péče	-9.63809
já	-9.63841
▁právní	-9.63859
▁obvinění	-9.6387
▁února	-9.63924
▁hru	-9.63927
▁dělá	-9.63965
▁někde	-9.63986
▁vztah	-9.6403
▁serveru	-9.6409
▁ulice	-9.64098
▁plán	-9.64112
▁hodinu	-9.64141
▁zemích	-9.64143
▁států	-9.64285
▁jezdí	-9.64327
▁druhém	-9.64337
▁soudce	-9.64342
val	-9.64355
▁krok	-9.64513
com	-9.64517
▁smlouvu	-9.64584
▁bank	-9.64708
▁stupňů	-9.64712
ím	-9.64763
▁škody	-9.64958
▁růst	-9.65095
▁bytu	-9.65173
▁přičemž	-9.65262
▁hranice	-9.6532
ska	-9.65345
▁televizi	-9.65358
▁sociálních	-9.65437
▁osmi	-9.65473
▁říci	-9.6548
▁sněmovny	-9.65526
▁vládě	-9.65536
▁označil	-9.65619
▁činnost	-9.65714
▁koalice	-9.65773
mě	-9.65774
▁km	-9.6592
▁nepro	-9.66016
▁činnosti	-9.66078
▁bydlení	-9.66154
▁prodej	-9.66195
▁krize	-9.66202
▁značky	-9.66422
uji	-9.66491
ace	-9.66504
▁škole	-9.66571
▁domě	-9.66598
▁společností	-9.66615
▁najednou	-9.66726
▁pravidelně	-9.66732
▁stane	-9.66755
▁kola	-9.66759
▁centrum	-9.67179
▁neměli	-9.67223
▁druhého	-9.67228
▁moderní	-9.67358
▁německu	-9.6741
▁ví	-9.67441
▁seznam	-9.67642
▁chtěla	-9.67708
▁hraje	-9.67794
▁změnu	-9.67866
▁syn	-9.67967
▁kolo	-9.67992
▁státního	-9.68135
▁představuje	-9.68276
▁tělo	-9.68363
el	-9.68385
ví	-9.6843
▁leží	-9.68498
▁cestě	-9.68535
▁rokem	-9.68642
▁jasně	-9.68789
▁každého	-9.68841
▁zahraniční	-9.6901
▁chování	-9.69015
▁rozhovoru	-9.69078
▁stejný	-9.69174
▁policistů	-9.69187
▁video	-9.69235
▁musím	-9.69272
▁hlavy	-9.69301
ar	-9.69507
▁server	-9.69652
▁umění	-9.69679
▁list	-9.69711
▁neustále	-9.69734
či	-9.69833
▁třech	-9.69912
▁řidiči	-9.69945
▁euro	-9.69992
▁nejvíc	-9.70027
▁parlamentu	-9.70037
▁návrhu	-9.70079
▁verzi	-9.70181
▁pozici	-9.70202
▁považuje	-9.70212
▁post	-9.70222
▁našeho	-9.70311
or	-9.70375
▁nejdříve	-9.70422
▁dění	-9.70443
▁letiště	-9.70512
▁takovou	-9.70525
▁sta	-9.7059
▁obětí	-9.70622
▁zdeněk	-9.70646
vat	-9.70671
ovaný	-9.70754
▁dlouhé	-9.70803
▁j	-9.70826
▁ha	-9.71004
▁podzim	-9.71013
▁počátku	-9.71015
▁osobně	-9.71159
▁činu	-9.71159
▁radost	-9.71167
▁pořádku	-9.71169
▁historii	-9.71193
ob	-9.71295
▁nena	-9.71349
▁osoby	-9.71383
▁studie	-9.71413
▁úspěch	-9.71498
▁takového	-9.7151
▁nádraží	-9.71595
▁mluví	-9.71723
ském	-9.71756
▁člen	-9.71802
▁stránkách	-9.71807
▁energie	-9.71883
▁bývá	-9.71913
▁pozor	-9.71941
▁zvýšení	-9.7197
▁nato	-9.72072
▁dalšími	-9.72101
▁zajímá	-9.72117
▁univerzity	-9.7212
▁staré	-9.7217
▁nesmí	-9.72196
ství	-9.72203
▁bar	-9.72205
▁minutě	-9.72275
▁titul	-9.72292
▁umí	-9.7233
▁týká	-9.72395
▁časem	-9.72444
▁hor	-9.72456
čka	-9.72546
▁týdny	-9.72552
▁finále	-9.72703
▁chodí	-9.72728
▁výboru	-9.7275
▁silnici	-9.72755
▁nachází	-9.72839
▁ona	-9.72843
▁desítek	-9.72991
▁úrovni	-9.73069
▁nechat	-9.73141
▁teploty	-9.73199
ení	-9.7321
▁premiéra	-9.73355
▁lidmi	-9.73376
▁cestou	-9.73396
▁padesát	-9.73426
▁změnit	-9.73475
▁vyjádření	-9.73515
▁milan	-9.73588
▁zemřel	-9.73675
▁těla	-9.73682
▁byt	-9.73734
▁kterému	-9.73815
et	-9.73847
▁čtk	-9.73898
▁svému	-9.74026
▁hranici	-9.74132
▁životě	-9.74147
▁trvá	-9.74302
▁rusko	-9.74352
▁nedá	-9.74434
▁létě	-9.74454
▁miliony	-9.74485
▁oni	-9.74639
▁majetku	-9.74667
▁dat	-9.74668
lou	-9.74679
▁sil	-9.74687
▁skutečnosti	-9.74751
▁útok	-9.74839
os	-9.74952
▁knihy	-9.75012
ík	-9.75119
▁štěstí	-9.752
ovo	-9.75228
▁připomíná	-9.75283
▁matka	-9.75399
▁reuters	-9.75432
▁ráda	-9.75447
▁práv	-9.75707
▁existuje	-9.75755
▁poslanci	-9.75776
▁snadno	-9.75828
▁šéfa	-9.75914
▁režimu	-9.75989
▁podnik	-9.76342
▁osn	-9.76367
▁konstatoval	-9.76409
▁představit	-9.76529
▁otázka	-9.76531
▁otec	-9.76546
▁spojené	-9.76547
ovu	-9.76611
▁malý	-9.76688
▁ostatních	-9.76725
dy	-9.76748
tr	-9.76768
▁hlediska	-9.76769
▁otázku	-9.76769
▁fotografie	-9.76806
ců	-9.76833
▁minulého	-9.76837
▁začalo	-9.76945
▁míní	-9.76949
▁zajímavé	-9.77052
▁povolení	-9.77057
▁neměla	-9.77194
▁zaměstnanci	-9.77207
▁podezření	-9.7722
▁objeví	-9.77235
ina	-9.77266
▁půjde	-9.77291
▁evropských	-9.77363
▁nechtěl	-9.77487
▁skončil	-9.77494
▁lidovky	-9.77497
▁rychlost	-9.77566
▁konečně	-9.7765
▁členové	-9.77862
▁proces	-9.78004
▁vůz	-9.78035
▁týdne	-9.78044
▁zbraní	-9.7807
aci	-9.78098
▁využití	-9.7817
▁získala	-9.78232
▁hlasování	-9.78318
děl	-9.78322
▁lékař	-9.78334
▁set	-9.78337
lit	-9.78423
▁hodnocení	-9.78456
pe	-9.78519
pře	-9.78566
▁data	-9.78566
▁rada	-9.78591
▁téma	-9.7874
▁prodeje	-9.78782
▁drží	-9.78791
ter	-9.78796
bu	-9.78816
▁spojených	-9.78818
▁oznámení	-9.78845
nic	-9.7886
▁přiznal	-9.78935
▁síly	-9.7903
▁smysl	-9.79038
▁body	-9.79061
▁riziko	-9.79103
▁těm	-9.79135
▁češi	-9.79153
▁školství	-9.79203
▁generace	-9.79222
line	-9.79225
▁dětmi	-9.79694
▁zásadní	-9.79696
▁maximálně	-9.79761
▁ú	-9.79774
▁jo	-9.79848
▁sobotka	-9.79863
us	-9.79881
▁prací	-9.79894
ovými	-9.79928
▁řidiče	-9.79946
▁alkoholu	-9.79949
▁nebyly	-9.79956
▁péči	-9.79997
ej	-9.80052
▁mne	-9.80104
▁odborníci	-9.8014
▁televizní	-9.80149
▁trestní	-9.80181
▁zákaz	-9.80262
▁vojáků	-9.80304
▁mé	-9.80327
▁bývalého	-9.80333
▁váš	-9.80423
▁bod	-9.80452
▁oznámil	-9.8046
byl	-9.80591
▁ochranu	-9.80655
▁nemám	-9.80659
▁vrátil	-9.80665
▁aktuální	-9.80727
▁prostředky	-9.80807
▁aplikace	-9.80879
ten	-9.81005
▁nejčastěji	-9.81056
bo	-9.81057
▁média	-9.81089
▁vladimír	-9.81103
▁tradiční	-9.81116
▁vozu	-9.81157
ga	-9.81163
▁nejlépe	-9.81222
▁řady	-9.81497
▁současně	-9.81555
▁životního	-9.81583
▁jiná	-9.8159
▁kol	-9.81692
▁regionu	-9.81697
▁internet	-9.81722
▁měst	-9.81767
▁dalšího	-9.81832
▁kanceláře	-9.81961
▁sněhu	-9.82186
▁dává	-9.82255
▁veřejných	-9.8227
ro	-9.82274
▁naštěstí	-9.82338
▁podniku	-9.82361
▁daně	-9.82397
▁někoho	-9.82475
▁neví	-9.82475
▁centimetrů	-9.82516
▁zdůraznil	-9.82523
▁umožňuje	-9.8256
▁přišli	-9.8263
▁spojení	-9.82661
▁bezpečnost	-9.82749
▁veřejnost	-9.8276
ický	-9.82786
▁spoustu	-9.82789
▁snížení	-9.82893
▁jednoduché	-9.82933
▁mar	-9.82953
▁jednotky	-9.83023
▁hráči	-9.83113
▁senátu	-9.83125
▁americký	-9.8314
▁jinde	-9.832
▁vozů	-9.83256
ák	-9.83302
▁potřebuje	-9.83327
▁srovnání	-9.83411
▁ideální	-9.83412
▁průměru	-9.83531
▁konec	-9.8358
ila	-9.8363
▁každou	-9.83768
▁chci	-9.83786
▁obecně	-9.83848
▁zdá	-9.83859
▁končí	-9.83932
▁hlavního	-9.8406
▁omezení	-9.84152
▁přišlo	-9.84244
▁klub	-9.84245
ber	-9.84314
▁roman	-9.84331
▁konferenci	-9.84577
▁zvláštní	-9.84656
▁použít	-9.84694
▁patnáct	-9.84729
▁něho	-9.8481
▁fondu	-9.84903
▁ukazuje	-9.8494
▁hlavu	-9.84945
▁styl	-9.84952
▁závěru	-9.85038
▁sportovní	-9.85134
▁vládu	-9.8516
▁deník	-9.85182
▁jejího	-9.85294
▁vidí	-9.85346
ží	-9.85468
ii	-9.85484
▁doba	-9.85545
▁odmítá	-9.85577
der	-9.85615
▁těsně	-9.85691
▁branky	-9.85826
▁dodnes	-9.85832
kon	-9.85845
▁ruské	-9.85856
▁lednu	-9.85967
▁svobody	-9.86002
▁slouží	-9.8601
osti	-9.86152
nit	-9.86199
ník	-9.8625
▁brno	-9.86291
▁rozhodli	-9.86307
▁horní	-9.86371
▁správy	-9.86399
▁obchodu	-9.86467
▁námi	-9.86545
▁jednotlivé	-9.86634
▁zajistit	-9.86646
▁záleží	-9.86701
▁obraz	-9.86722
pl	-9.86818
▁obsahuje	-9.87025
▁w	-9.8718
▁každém	-9.87239
▁bezpečnosti	-9.87242
▁plně	-9.87245
▁mladé	-9.87246
▁dohromady	-9.87246
▁odvolání	-9.87313
▁jisté	-9.87375
▁přijít	-9.87395
▁vodu	-9.87417
▁pozornost	-9.87538
▁karty	-9.87573
▁dveře	-9.87591
nout	-9.87603
▁naposledy	-9.87617
▁investice	-9.87658
▁pana	-9.87676
▁dle	-9.87744
▁každá	-9.87759
▁strach	-9.87776
▁používá	-9.87788
▁banka	-9.87857
▁hudební	-9.87901
by	-9.8793
▁včera	-9.87952
▁technologie	-9.88093
▁údaje	-9.88217
▁vyplývá	-9.88283
▁veškeré	-9.88303
▁západní	-9.88353
▁iráku	-9.88384
▁všude	-9.88444
▁byť	-9.88487
▁pomalu	-9.88568
▁příštího	-9.88601
sk	-9.88661
▁chtít	-9.88677
▁mluvit	-9.8876
▁nabídku	-9.8893
▁zdrojů	-9.89088
▁armády	-9.89188
▁radní	-9.89248
▁demokracie	-9.89316
▁horší	-9.89467
▁vytvořit	-9.89505
▁vážně	-9.8953
▁pravidla	-9.8956
▁poslanců	-9.89581
▁generální	-9.89603
▁čin	-9.89641
ání	-9.89713
▁politici	-9.89837
▁celkové	-9.89846
▁bytů	-9.89928
▁měsících	-9.9007
sta	-9.90076
▁oblast	-9.90114
▁účast	-9.9015
▁pří	-9.90166
ovaných	-9.90239
še	-9.90265
ovací	-9.90359
▁použití	-9.90443
ed	-9.90521
▁martina	-9.90644
▁důvodu	-9.90665
▁severní	-9.90685
▁třicet	-9.90736
▁chystá	-9.9074
▁vím	-9.90764
▁odboru	-9.90787
▁ln	-9.90805
▁firmě	-9.90854
▁ostatně	-9.90887
▁gól	-9.90904
▁takzvané	-9.90914
▁vybavení	-9.90916
▁pa	-9.90927
▁vstup	-9.90967
▁minimální	-9.90995
▁žádost	-9.91006
před	-9.91055
▁spousta	-9.91074
▁závod	-9.91164
▁předchozí	-9.91167
▁nemohl	-9.9118
▁vznikla	-9.91211
▁tamní	-9.91214
▁obavy	-9.91281
▁odborníků	-9.91316
▁velkým	-9.91326
▁šance	-9.91355
ským	-9.91449
▁názvem	-9.91475
▁důvodem	-9.91582
▁modelu	-9.91658
▁zůstat	-9.91757
▁le	-9.91761
▁novém	-9.91761
vr	-9.91775
hl	-9.92067
▁upozorňuje	-9.92164
▁takových	-9.92165
dí	-9.92174
zá	-9.92183
▁malá	-9.92196
▁dopravu	-9.92265
▁pc	-9.92371
▁předem	-9.92396
▁rozvoj	-9.92426
ních	-9.92433
▁vybrat	-9.92444
▁mého	-9.9253
▁koupit	-9.92538
▁výkonu	-9.92542
▁františek	-9.92598
▁občanů	-9.92606
▁čt	-9.92664
▁udělal	-9.92677
▁pozice	-9.9277
▁viděl	-9.92807
▁směru	-9.9289
▁jiřího	-9.929
▁webu	-9.92902
vi	-9.92906
▁dojde	-9.92908
▁typ	-9.92909
▁nepři	-9.93121
▁restaurace	-9.9317
▁mb	-9.93181
▁vztahy	-9.93192
▁ma	-9.93247
▁zaplatit	-9.93294
▁týdnů	-9.93301
▁hasičů	-9.93333
▁hodnoty	-9.93388
▁armáda	-9.93423
▁nedaleko	-9.93524
▁ko	-9.93551
▁anebo	-9.93619
▁kon	-9.93627
▁jinou	-9.93628
▁stavba	-9.93653
▁název	-9.93674
let	-9.93677
jsem	-9.93706
▁jediné	-9.93827
▁mil	-9.93896
▁zbraně	-9.93914
▁největším	-9.9392
ic	-9.93954
▁provedení	-9.93962
▁takhle	-9.94008
▁babiš	-9.9404
▁informoval	-9.94055
▁novým	-9.94102
▁rozhodla	-9.94159
▁ženu	-9.94194
▁řeší	-9.94245
▁vhodné	-9.9427
▁tlak	-9.94293
▁připomněl	-9.94394
čssd	-9.94473
ili	-9.94508
▁běžné	-9.94511
▁displej	-9.94559
▁oficiální	-9.94613
▁zpráva	-9.94636
▁vojáci	-9.94807
▁česka	-9.94872
▁třemi	-9.94899
▁plné	-9.9492
▁oblečení	-9.94958
▁všeho	-9.94968
▁maximální	-9.9507
▁nabídky	-9.95095
▁samo	-9.95096
▁hlas	-9.95144
▁médií	-9.95173
▁vojenské	-9.95207
▁dostanou	-9.9523
▁centrální	-9.95401
▁dětem	-9.95423
▁cestovní	-9.95426
▁hotelu	-9.95436
▁zbytek	-9.95452
▁částku	-9.95545
▁ivan	-9.95619
▁pracoval	-9.95662
▁začaly	-9.95721
▁snažil	-9.95772
▁zůstane	-9.95809
▁pohybuje	-9.95819
▁nejspíš	-9.95825
▁víkendu	-9.95832
▁vozidla	-9.95842
▁podmínek	-9.9594
▁obyvatelé	-9.9596
▁reagoval	-9.95976
▁síť	-9.96001
ujeme	-9.96001
▁dotace	-9.96015
per	-9.96069
▁super	-9.96078
▁jakou	-9.96287
▁nepodařilo	-9.96315
▁otázky	-9.96397
ja	-9.9642
ť	-9.96522
▁nemohou	-9.96541
▁částečně	-9.96572
▁třídy	-9.96597
▁našli	-9.96608
ner	-9.96625
▁akcí	-9.96634
▁jednoduše	-9.96641
▁názoru	-9.96648
son	-9.96771
ods	-9.96784
▁hledat	-9.96794
▁červnu	-9.96827
▁dřív	-9.96846
▁měsíčně	-9.96971
▁stavbu	-9.97167
pr	-9.97475
kovi	-9.97496
▁led	-9.97497
▁události	-9.97498
▁václava	-9.97548
▁vychází	-9.97575
▁marek	-9.97623
▁dvaceti	-9.97646
▁firmu	-9.97655
▁noc	-9.97714
▁avšak	-9.97783
▁šel	-9.97809
str	-9.97883
▁zoo	-9.97939
▁národního	-9.97954
▁di	-9.98147
▁mistrovství	-9.98149
▁škola	-9.98162
asi	-9.98225
▁zdroje	-9.98274
nici	-9.98291
▁svoboda	-9.98415
▁jaře	-9.98422
▁čísla	-9.98725
▁jezdit	-9.98734
▁nebezpečí	-9.98762
nými	-9.98771
▁red	-9.98779
▁míru	-9.98826
čsl	-9.9889
▁hovoří	-9.98933
ční	-9.98949
▁č	-9.99046
▁podporuje	-9.99049
▁kultury	-9.99112
▁získáte	-9.99213
▁sledovat	-9.99293
▁případy	-9.9931
▁zjistili	-9.99323
▁letadla	-9.9939
▁sport	-9.99453
▁místních	-9.99464
▁čekat	-9.99503
▁materiál	-9.99578
▁domy	-9.99668
▁zaplatí	-9.99671
▁děje	-9.99715
▁polovinu	-9.99728
▁nečas	-9.99806
ště	-9.99828
▁vystoupení	-9.99856
▁praxi	-9.99966
▁kterými	-9.99971
▁průmyslu	-10.0002
▁věří	-10.0002
▁březnu	-10.0014
▁doslova	-10.0014
sku	-10.0015
▁vědět	-10.0024
▁případné	-10.0025
▁dali	-10.0038
▁čem	-10.004
▁stránky	-10.0045
▁nehody	-10.0045
▁německa	-10.0047
▁službu	-10.005
▁poslal	-10.0053
kám	-10.0056
▁slovo	-10.0057
▁činí	-10.006
▁stupně	-10.0061
be	-10.0062
nová	-10.0062
▁mnozí	-10.0062
▁obcí	-10.0068
▁aniž	-10.0071
▁komunikace	-10.0072
▁rekonstrukce	-10.008
▁posledním	-10.0081
▁říkal	-10.0081
▁nemáme	-10.0082
▁pojišťovny	-10.0082
▁most	-10.0083
▁zájmu	-10.0092
▁spolupráce	-10.0095
▁podobný	-10.0102
▁nepře	-10.0105
▁údajů	-10.0114
▁okna	-10.0115
▁diváci	-10.012
▁opozice	-10.012
▁změna	-10.0137
▁primátor	-10.0138
▁muzea	-10.014
ano	-10.0141
▁cíl	-10.0143
▁hráč	-10.015
▁lehce	-10.0151
–	-10.0161
▁moře	-10.017
▁kdysi	-10.0171
▁vyjde	-10.0178
▁květnu	-10.0178
▁jídlo	-10.0182
▁výroby	-10.0183
ton	-10.0187
▁sezoně	-10.0202
▁pavla	-10.0204
▁většině	-10.0213
▁soutěž	-10.0221
▁manžel	-10.0222
▁ohledu	-10.0225
▁služba	-10.0231
▁per	-10.0232
▁amerických	-10.0232
▁jména	-10.0237
▁dvanáct	-10.0238
▁podání	-10.0243
▁uvnitř	-10.0244
▁vznikl	-10.0247
▁onemocnění	-10.0263
▁opakovaně	-10.0265
▁někdejší	-10.0277
▁krajské	-10.0282
▁cestující	-10.0287
▁krajích	-10.0306
▁jedinou	-10.0307
ovém	-10.0311
▁srdce	-10.0317
ální	-10.0321
▁průzkumu	-10.0321
▁začátkem	-10.0323
▁nikoli	-10.0335
▁pozitivní	-10.034
▁režim	-10.0353
▁oficiálně	-10.0355
▁vnitřní	-10.0358
▁kroky	-10.0363
▁aspoň	-10.037
ál	-10.0371
▁termín	-10.0372
▁nárok	-10.0376
▁paměti	-10.0376
vají	-10.0385
▁dítěte	-10.0386
du	-10.0397
rou	-10.0399
▁např	-10.0402
▁dostatečně	-10.0409
▁hráče	-10.0414
▁mladší	-10.0418
▁místnosti	-10.042
▁sdělila	-10.042
kl	-10.0423
▁násilí	-10.0424
▁používat	-10.0434
▁koaliční	-10.0441
▁dobrá	-10.0444
▁ven	-10.0449
▁operace	-10.0452
▁technické	-10.0456
▁závěr	-10.0459
▁tvrdil	-10.0466
▁francie	-10.0467
id	-10.0467
▁rodinu	-10.0471
▁design	-10.0473
▁pokus	-10.0475
▁celkově	-10.0488
▁zámku	-10.0491
▁bo	-10.0499
▁podívat	-10.0501
ot	-10.0502
▁boje	-10.0505
▁zobrazit	-10.0529
▁amerického	-10.0532
▁budoucnu	-10.0534
▁klient	-10.0536
top	-10.0542
má	-10.0544
▁skončila	-10.0547
▁odkud	-10.0548
▁poslanec	-10.0549
▁známé	-10.0552
▁vodou	-10.0555
▁mobil	-10.0566
▁postavit	-10.0572
▁hodině	-10.0575
▁konkrétně	-10.0576
▁únoru	-10.0579
▁zkrátka	-10.058
mb	-10.0582
▁přichází	-10.0585
▁fungovat	-10.0587
ační	-10.0588
▁minulých	-10.0589
vol	-10.0594
▁předsedy	-10.0595
▁plyn	-10.0606
▁očekává	-10.0614
▁svoje	-10.0616
▁výrobu	-10.0616
▁republika	-10.062
▁podaří	-10.0622
▁zadní	-10.0623
▁john	-10.0626
dr	-10.0628
hu	-10.0629
ickou	-10.0631
▁smrt	-10.0644
▁mnou	-10.0644
▁svazu	-10.0646
▁dolů	-10.0648
▁skončí	-10.065
su	-10.065
▁stylu	-10.0653
▁potíže	-10.0661
▁vést	-10.0665
▁čase	-10.0665
▁dotaz	-10.0681
▁prosinci	-10.0692
nej	-10.0693
▁mm	-10.0696
▁vzduchu	-10.0701
ol	-10.0702
▁králové	-10.0703
ujte	-10.0712
▁silnic	-10.0722
▁zahraničních	-10.0736
stav	-10.0736
▁dostatek	-10.0739
▁noční	-10.0739
▁zvlášť	-10.0744
▁kampaň	-10.0747
▁žít	-10.0751
▁částí	-10.0758
▁brna	-10.0759
▁chuť	-10.0761
▁pacientů	-10.0762
ohledně	-10.0767
▁potvrdila	-10.0768
▁cm	-10.0783
▁modely	-10.0788
▁listu	-10.0788
▁ukázalo	-10.0793
▁počítače	-10.0797
▁odpovídá	-10.0799
▁hejtman	-10.0799
▁dokud	-10.0803
▁potravin	-10.0803
▁oči	-10.0808
▁správně	-10.081
▁rodičů	-10.0813
▁jednoznačně	-10.0817
▁nese	-10.0821
▁ředitelka	-10.0822
▁pomáhá	-10.0826
▁zjistit	-10.0826
▁san	-10.0828
▁návštěvníci	-10.0835
▁fa	-10.0837
▁jiným	-10.0845
ler	-10.0852
▁využívá	-10.0855
▁vysokou	-10.0855
▁zpátky	-10.0858
ají	-10.0859
▁samotné	-10.086
▁hrad	-10.0861
▁krajského	-10.0866
▁sezony	-10.0869
▁série	-10.0871
▁spravedlnosti	-10.0877
▁našem	-10.0883
▁mění	-10.0887
▁rodině	-10.0898
▁stejnou	-10.0899
▁říjnu	-10.0902
▁vozy	-10.0904
▁rekonstrukci	-10.0909
▁lékařů	-10.0912
ck	-10.0919
▁úroveň	-10.092
▁nápad	-10.094
▁park	-10.0945
▁útočník	-10.0948
▁dobrou	-10.0951
▁dala	-10.0952
▁zaměstnání	-10.0956
▁manažer	-10.0958
▁čekají	-10.0958
▁trestu	-10.0958
▁pražského	-10.0962
▁hráčů	-10.0966
▁pole	-10.0966
▁budoucí	-10.097
▁vědci	-10.0979
▁záležitost	-10.0984
▁povinnost	-10.0988
▁připojení	-10.0989
▁podnikatel	-10.0993
▁určité	-10.0994
▁novinářům	-10.0996
▁špatné	-10.1002
▁dopoledne	-10.1003
▁sms	-10.1003
▁evropská	-10.1016
go	-10.1024
▁británie	-10.1026
▁přednost	-10.1028
zí	-10.1033
át	-10.1033
▁alkohol	-10.1037
▁zprávu	-10.1044
▁eva	-10.1046
▁poněkud	-10.1049
▁vzniku	-10.1054
jíž	-10.1055
▁najevo	-10.1056
▁dph	-10.1056
▁kontrolu	-10.1066
▁jím	-10.1083
▁nejsem	-10.1084
▁ústí	-10.1086
▁majitelé	-10.1088
▁hlavou	-10.1096
▁pokles	-10.1098
▁jakmile	-10.1104
▁abyste	-10.1106
roz	-10.1117
▁rychlosti	-10.1125
▁přední	-10.1125
▁účet	-10.1129
▁ihned	-10.1136
▁všechna	-10.1145
▁zrušení	-10.1147
▁ústavní	-10.1149
▁rusku	-10.115
ke	-10.1153
▁ondřej	-10.1161
tek	-10.1163
▁oboru	-10.117
▁skutečnost	-10.1173
▁tun	-10.1175
▁magistrátu	-10.1177
tak	-10.1177
▁stává	-10.1179
▁polovina	-10.12
▁dopředu	-10.1219
▁dosáhnout	-10.1224
▁pohyb	-10.1227
▁částky	-10.1229
▁lu	-10.1237
▁vyšetření	-10.124
▁obsah	-10.124
ali	-10.1246
▁sněmovně	-10.125
▁chodit	-10.1252
▁text	-10.1252
▁reakce	-10.1254
▁starosti	-10.1254
▁cíle	-10.1259
ant	-10.1268
▁příspěvek	-10.127
▁studenti	-10.1271
▁tomuto	-10.1275
ován	-10.1279
▁dávno	-10.1285
▁popsala	-10.1286
▁něhož	-10.1287
▁výběru	-10.1288
▁převážně	-10.129
▁stará	-10.1293
▁vodní	-10.1296
▁dohody	-10.1299
▁vozidel	-10.13
▁obec	-10.1314
kami	-10.1316
▁dosavadní	-10.1332
▁jakub	-10.1334
▁klidně	-10.1335
▁potřeby	-10.1345
▁dubnu	-10.1359
▁zůstal	-10.1361
▁ruska	-10.1371
▁ostravě	-10.1382
▁nikoliv	-10.1382
▁mo	-10.1388
ge	-10.1394
▁vrátí	-10.1395
sí	-10.1395
▁velikosti	-10.1397
▁primátora	-10.1403
▁roze	-10.1409
▁pravdu	-10.141
šť	-10.1411
ovanou	-10.1413
▁představení	-10.1414
▁nabídka	-10.1415
zi	-10.1418
rá	-10.1419
▁úkol	-10.1423
▁válce	-10.1427
▁zpracování	-10.1428
▁obchod	-10.1433
▁normální	-10.1436
ovaly	-10.1437
▁lékaře	-10.1437
▁častěji	-10.144
▁stál	-10.1443
▁stroj	-10.1454
▁fond	-10.1455
▁malých	-10.1456
▁poloviny	-10.1456
▁svá	-10.146
▁odpověď	-10.1462
▁rozhodnout	-10.1466
▁asociace	-10.1468
▁krajský	-10.1468
▁plány	-10.1471
▁růstu	-10.1471
▁místopředseda	-10.1476
▁majetek	-10.1484
▁opoziční	-10.1484
▁fondů	-10.1489
▁plus	-10.1494
▁dělají	-10.1495
▁plánuje	-10.1497
fr	-10.1498
▁rovnou	-10.15
▁jelikož	-10.1501
ického	-10.1507
▁rozhodne	-10.1519
▁nákladů	-10.1522
▁stroje	-10.1529
▁ovládání	-10.1534
pan	-10.1536
▁pivo	-10.1538
▁unikátní	-10.1546
▁jediná	-10.1552
▁spor	-10.1554
▁informaci	-10.1575
há	-10.1577
▁be	-10.1577
▁německé	-10.1581
▁vrchol	-10.1583
▁plat	-10.1589
▁třetím	-10.1597
▁historie	-10.1599
▁pochází	-10.1601
▁vysoká	-10.1602
▁školu	-10.1604
▁vyjádřil	-10.1605
▁telefonů	-10.1606
ovský	-10.1608
▁českém	-10.1609
▁seznamu	-10.161
dal	-10.1619
▁čechách	-10.1622
▁vzal	-10.1627
▁marie	-10.163
▁levnější	-10.163
▁výbor	-10.1633
▁pokračuje	-10.1634
▁nárůst	-10.1642
nek	-10.1642
▁dochází	-10.1644
▁východní	-10.165
▁barvy	-10.1653
▁ohrožení	-10.1658
▁druhým	-10.1658
▁syna	-10.1661
▁kulturní	-10.1661
dl	-10.1666
▁dojít	-10.1669
▁nejhorší	-10.167
▁členy	-10.1672
▁nabízejí	-10.1689
▁věnovat	-10.1691
▁zaměstnance	-10.1701
kr	-10.1701
▁ksčm	-10.1703
▁kus	-10.1704
▁místy	-10.1709
▁ruku	-10.1717
▁přístroje	-10.1718
není	-10.1721
▁režisér	-10.1721
▁bbc	-10.1723
pp	-10.1735
čky	-10.1743
▁osud	-10.1745
▁vydal	-10.1759
▁rozpočet	-10.176
▁miloš	-10.1764
▁změně	-10.1764
▁vyhrál	-10.177
▁ačkoliv	-10.1775
▁silné	-10.178
▁objevil	-10.1787
▁vánoční	-10.1791
▁vždyť	-10.1793
▁role	-10.1795
▁prostředků	-10.1804
▁devíti	-10.1806
▁horách	-10.1807
▁minuty	-10.1809
▁automaticky	-10.1812
▁díl	-10.1819
▁nechybí	-10.1825
▁stanici	-10.1826
▁požadavky	-10.1826
▁komerční	-10.183
▁majitele	-10.1837
▁nechci	-10.184
▁prvky	-10.1849
▁jaká	-10.186
▁řečeno	-10.1861
▁společné	-10.1864
▁dokument	-10.1866
▁aktivní	-10.1867
▁podpora	-10.1867
▁dovolenou	-10.1868
▁roční	-10.1869
▁musejí	-10.1873
▁příjmy	-10.1873
▁politiků	-10.1876
▁cvičení	-10.1878
▁neod	-10.1887
▁pozn	-10.1891
ala	-10.1894
▁chvíle	-10.1895
▁účtu	-10.1895
▁roste	-10.1896
▁vaší	-10.1896
▁mnohé	-10.1899
▁jejích	-10.1903
▁dlouhá	-10.1906
▁ekonomické	-10.1908
▁divadla	-10.191
▁slovensku	-10.191
▁běžně	-10.1912
ster	-10.1912
▁mírně	-10.1912
▁zápasu	-10.1913
▁go	-10.1915
▁bývalé	-10.1917
jde	-10.1917
▁umožní	-10.1918
▁kousek	-10.1919
▁dolní	-10.1927
▁vedl	-10.1937
▁skupin	-10.1939
▁vztahu	-10.1941
▁dalo	-10.1942
kovou	-10.1945
pod	-10.1947
▁slyšet	-10.1951
▁sv	-10.1952
mar	-10.1953
▁start	-10.1955
▁potřebné	-10.1968
▁aktivity	-10.1976
▁článku	-10.1976
▁týdnu	-10.1984
▁vzpomíná	-10.1989
krát	-10.1999
▁zisk	-10.2
bit	-10.2002
▁nokia	-10.2004
▁touto	-10.2005
▁výjimkou	-10.2006
▁počítat	-10.2016
▁přílohy	-10.2017
▁nikoho	-10.2018
▁web	-10.2019
▁návrat	-10.2028
▁čez	-10.2035
▁nemůžeme	-10.2041
▁zkušenost	-10.2042
▁výzkum	-10.2043
▁pracovních	-10.2045
▁projekty	-10.2045
ější	-10.2053
▁nastavení	-10.2058
▁plzeň	-10.206
▁jediným	-10.2066
▁jménem	-10.2068
▁zahájení	-10.2076
▁rozlišení	-10.2077
ký	-10.2077
ému	-10.2086
▁věřím	-10.2086
▁přijdou	-10.2089
▁plynu	-10.2091
▁soudem	-10.2092
št	-10.2093
▁kolegy	-10.2098
▁hlavních	-10.2101
▁operační	-10.2105
▁státech	-10.2107
▁procesu	-10.2109
▁vzít	-10.2114
▁klidu	-10.212
▁stíhání	-10.2123
▁útoky	-10.2125
▁dají	-10.2142
▁pořadí	-10.2146
▁čeští	-10.2148
▁začnou	-10.215
▁loď	-10.2152
▁areál	-10.2154
ut	-10.2155
▁očekávat	-10.2168
▁černé	-10.2169
▁jestliže	-10.217
▁známý	-10.2171
vali	-10.2188
▁telefony	-10.219
▁řádu	-10.2205
▁německo	-10.2205
▁hodlá	-10.2205
▁státních	-10.2215
▁nabídne	-10.2215
▁nějaká	-10.2224
tra	-10.2226
▁studentů	-10.2229
▁připravuje	-10.223
▁připravit	-10.2233
▁autoři	-10.2234
nutí	-10.2235
pří	-10.224
▁kvalitu	-10.224
▁afghánistánu	-10.2241
▁pra	-10.2242
▁závodu	-10.2245
▁současný	-10.225
▁cest	-10.2258
▁využívat	-10.2262
lík	-10.227
▁mnohdy	-10.2272
▁financování	-10.2273
▁francii	-10.2279
▁výsledků	-10.228
▁ex	-10.2285
▁společného	-10.2287
▁informovala	-10.2298
▁prostory	-10.2302
▁zákazníků	-10.2311
▁nohy	-10.2314
▁soutěži	-10.2321
▁tv	-10.2325
▁klasické	-10.2329
ver	-10.2333
▁probíhá	-10.234
▁příležitost	-10.2342
▁dojem	-10.2356
▁základních	-10.2358
vo	-10.2359
ca	-10.236
▁nákup	-10.2365
▁kompletní	-10.2378
▁výsledkem	-10.2378
ši	-10.2381
▁našel	-10.2386
▁denní	-10.2387
▁jakým	-10.2389
▁smlouva	-10.239
▁poslanecké	-10.2391
▁čímž	-10.2393
▁studia	-10.2395
▁žijí	-10.2405
▁ukončení	-10.2406
▁snížit	-10.2416
sti	-10.2416
▁působil	-10.2421
▁podnikání	-10.2433
ani	-10.244
▁pracovníci	-10.2447
▁cd	-10.2448
▁inspekce	-10.245
▁přináší	-10.2455
▁letošním	-10.2459
▁déle	-10.2464
▁materiálu	-10.2465
▁názory	-10.2465
fa	-10.2466
▁británii	-10.2468
▁voličů	-10.2469
▁rozšíření	-10.2472
té	-10.2474
▁boji	-10.2478
▁srpnu	-10.249
sek	-10.2493
▁politických	-10.2494
▁silný	-10.2495
▁otázkou	-10.2497
▁takovém	-10.2498
▁pas	-10.2502
▁městech	-10.2505
den	-10.2507
▁ap	-10.2508
tal	-10.2508
▁ligy	-10.2509
▁prezidentem	-10.251
▁článek	-10.252
▁řeky	-10.252
▁n	-10.2526
▁dovolené	-10.2529
▁vyzval	-10.253
▁miliónu	-10.2536
▁dopis	-10.2536
bí	-10.2537
▁kontroly	-10.2538
bylo	-10.2543
▁vý	-10.2544
▁budoucnosti	-10.2546
▁zasedání	-10.2548
▁kdu	-10.2555
▁stavět	-10.2556
▁dr	-10.2558
▁obci	-10.2559
▁trati	-10.256
▁zdejší	-10.2562
▁kategorie	-10.2564
▁skupině	-10.2565
▁zpráv	-10.2567
sen	-10.2571
▁samsung	-10.2574
▁dívky	-10.2577
▁povrch	-10.2578
▁měsíční	-10.2583
▁bor	-10.2583
min	-10.2584
▁odchodu	-10.2585
▁nebudu	-10.2586
▁bytě	-10.2588
mal	-10.2589
ď	-10.259
▁poblíž	-10.2601
▁doplnila	-10.2604
▁poplatky	-10.2605
▁zimní	-10.2611
án	-10.2613
▁kr	-10.2614
▁pomůže	-10.2619
▁hodinách	-10.2625
▁letní	-10.2629
▁porušení	-10.2634
▁du	-10.2634
▁technologií	-10.2635
▁škodu	-10.2636
▁relativně	-10.2643
▁největších	-10.2644
▁vysoký	-10.2651
▁dívka	-10.2652
jen	-10.2654
▁plzni	-10.2657
▁negativní	-10.266
▁zabránit	-10.267
▁záchranáři	-10.2671
▁výzkumu	-10.2672
▁sony	-10.2681
▁význam	-10.2683
ici	-10.2683
▁poškození	-10.2684
▁mini	-10.2684
▁návratu	-10.2685
▁důvody	-10.2687
▁obama	-10.2689
▁kusů	-10.2696
sil	-10.27
▁důsledku	-10.2701
▁oznámila	-10.2701
▁tvrzení	-10.2703
▁správné	-10.2708
▁léky	-10.2709
▁pohybu	-10.271
▁členem	-10.2719
lová	-10.2721
▁zdaleka	-10.2723
▁kalousek	-10.2727
▁objem	-10.2731
▁prodeji	-10.2731
▁díla	-10.2737
iny	-10.2739
▁veřejného	-10.2741
▁projektů	-10.2745
▁funkcí	-10.2747
byt	-10.275
šek	-10.2754
čku	-10.2757
▁zabývat	-10.2759
▁organizací	-10.276
▁hřiště	-10.2768
▁schopen	-10.2768
▁látky	-10.2777
▁postavení	-10.2779
▁bu	-10.2781
▁dálnice	-10.2786
▁schopni	-10.2786
▁budoucnost	-10.2787
▁adresu	-10.2789
▁pochopitelně	-10.279
▁potvrzuje	-10.2797
▁včas	-10.2799
ár	-10.28
▁krizi	-10.2804
▁tudíž	-10.2809
prav	-10.2818
▁natolik	-10.2827
▁paroubek	-10.2831
▁daň	-10.2834
▁mp	-10.2835
▁prospěch	-10.2837
▁maso	-10.2837
▁prodávat	-10.2839
▁bílé	-10.2843
▁robert	-10.2844
bě	-10.2845
▁koho	-10.2846
▁foto	-10.2848
▁objevily	-10.285
▁víkend	-10.285
cím	-10.2852
▁mladých	-10.2852
▁nechtějí	-10.2859
▁stránce	-10.2863
▁pokoj	-10.2872
▁vydat	-10.2876
▁zvýšit	-10.2876
▁klientů	-10.2879
ent	-10.2885
▁patnácti	-10.2886
▁měnit	-10.2886
▁bi	-10.2888
▁uprostřed	-10.2891
▁objevila	-10.2894
th	-10.2895
▁doprava	-10.2899
▁problémem	-10.2901
▁červenci	-10.2904
▁ceně	-10.2906
▁trpí	-10.2909
▁karla	-10.2918
▁potřebují	-10.2922
▁dveří	-10.2923
▁příštím	-10.2925
ps	-10.2938
▁hrál	-10.294
▁vyžaduje	-10.294
▁podpory	-10.294
▁částka	-10.2944
▁zabývá	-10.2946
▁dokázal	-10.2949
▁vysílání	-10.2952
▁blízkosti	-10.2957
▁milion	-10.2957
ických	-10.2957
▁muzeum	-10.2959
▁používají	-10.2963
▁stávající	-10.2965
▁návrhy	-10.2967
rat	-10.297
▁ode	-10.298
▁těší	-10.2981
▁obžaloby	-10.2981
▁byty	-10.2982
▁existují	-10.2983
▁strašně	-10.2986
lin	-10.2991
▁hodnotu	-10.2994
▁úseku	-10.2995
pal	-10.2996
▁říkají	-10.2997
▁okamžiku	-10.3
▁novák	-10.3002
ního	-10.3007
▁nebyli	-10.3009
▁zvláště	-10.3012
▁veřejně	-10.3013
▁blízko	-10.3018
br	-10.3018
▁přírodní	-10.3018
▁druhů	-10.3024
▁modelů	-10.3029
vou	-10.3031
▁pracují	-10.3033
▁úvěr	-10.3038
▁nejbližší	-10.3038
▁ju	-10.3039
▁řeč	-10.3041
▁velkého	-10.3043
▁menu	-10.3045
▁třikrát	-10.3046
▁wi	-10.3046
▁populární	-10.3049
▁čtvrt	-10.3052
▁politika	-10.3053
▁hradu	-10.3057
▁zastavit	-10.3057
▁zavedení	-10.3058
ném	-10.3059
ct	-10.3067
▁nehodě	-10.3067
ovalo	-10.3073
▁vedením	-10.3076
šp	-10.3081
▁show	-10.3084
▁trvat	-10.3087
▁nedostatek	-10.3089
▁zvířat	-10.3094
▁policisty	-10.3096
▁advokát	-10.3098
▁mostu	-10.3102
▁ministryně	-10.3106
▁železniční	-10.3107
ovány	-10.3107
▁vypadat	-10.3107
▁reakci	-10.311
▁politice	-10.311
▁výrobci	-10.312
▁přání	-10.3128
kov	-10.313
▁správní	-10.3131
▁lidské	-10.3135
▁filip	-10.3136
▁turistů	-10.3136
▁operaci	-10.3143
zd	-10.3145
bou	-10.3147
▁získali	-10.3148
▁jízdy	-10.3151
▁americká	-10.3151
ké	-10.3153
▁zprávě	-10.3153
▁pořádně	-10.3159
▁hotel	-10.316
▁linky	-10.3161
▁zjistil	-10.3164
▁kauze	-10.3167
▁dílo	-10.3168
myslím	-10.3168
▁věděl	-10.3169
▁náročné	-10.317
▁mohu	-10.3174
▁mladí	-10.3177
kal	-10.3182
▁skupinu	-10.3186
▁bezpečnostních	-10.3186
▁obrovské	-10.3189
▁liší	-10.319
▁pi	-10.319
▁výročí	-10.3198
▁dlouhou	-10.3203
▁vstupu	-10.3211
▁kampaně	-10.3212
▁pl	-10.3217
▁přesvědčen	-10.3218
▁všemi	-10.3221
▁prahu	-10.3222
▁lukáš	-10.3224
▁pr	-10.3225
▁městem	-10.3229
▁podobných	-10.3231
▁příklad	-10.3231
▁vazby	-10.3231
▁politiku	-10.3236
len	-10.3237
▁budoucna	-10.324
▁spodní	-10.3246
▁neznamená	-10.3248
▁loňském	-10.3249
▁výběrové	-10.3251
▁přístroj	-10.3255
▁pobyt	-10.3261
pí	-10.3264
až	-10.3268
▁líbí	-10.3271
▁kateřina	-10.3273
▁jednotek	-10.3275
▁dcera	-10.3277
ovce	-10.3282
▁ca	-10.3284
▁test	-10.3288
▁jednak	-10.3288
ané	-10.329
tou	-10.3293
▁šla	-10.3297
dá	-10.3304
▁přehled	-10.3311
▁navzdory	-10.3316
▁oblastech	-10.3318
▁ačkoli	-10.3318
▁otevření	-10.332
▁dar	-10.3331
▁klid	-10.3336
ené	-10.3338
▁ro	-10.3344
▁snažit	-10.3344
▁vysvětlila	-10.3347
▁vítr	-10.3347
▁radek	-10.3357
▁pu	-10.3358
▁dráhy	-10.3364
nul	-10.3364
▁míry	-10.3366
▁záměr	-10.3367
▁zásah	-10.3368
▁zájemci	-10.3372
▁mezitím	-10.3379
▁čemu	-10.3386
▁daniel	-10.339
▁pacient	-10.3392
máme	-10.3394
▁severu	-10.3402
▁autem	-10.3411
▁budova	-10.3411
▁volbami	-10.3417
▁bojovat	-10.3418
▁věnuje	-10.3421
vání	-10.3428
▁staví	-10.3429
▁ulicích	-10.3429
▁baví	-10.3438
▁novinky	-10.3444
▁čtvrtletí	-10.3449
ren	-10.3453
▁stromy	-10.3454
▁kouč	-10.3457
▁ochrany	-10.3457
mat	-10.3465
▁nemoc	-10.3467
▁metru	-10.3468
▁michael	-10.3469
▁objektu	-10.3471
▁malou	-10.3475
▁manželka	-10.3478
▁pohybovat	-10.3478
▁souvisí	-10.3481
▁mzdy	-10.3488
▁zimě	-10.3489
▁zákazníci	-10.3493
tem	-10.3499
▁student	-10.3499
▁lidských	-10.3502
▁nabídnout	-10.3503
▁předchozích	-10.3511
▁ohledem	-10.352
pu	-10.3527
▁cizí	-10.3527
▁druh	-10.3529
▁zastupitelství	-10.3532
▁sloužit	-10.3533
▁rozsudku	-10.3536
▁hodnotě	-10.3539
▁vítěz	-10.3539
oba	-10.354
▁důkazy	-10.3541
▁play	-10.3546
▁sedí	-10.3548
rad	-10.3549
▁kriminalisté	-10.3549
▁vlivem	-10.3551
▁umístění	-10.3553
▁standardní	-10.3555
▁vzdělání	-10.3561
▁počítač	-10.3569
▁bydlí	-10.3572
ruš	-10.3575
▁čeho	-10.3579
▁divadlo	-10.3579
▁ukázal	-10.3581
▁hospodářské	-10.3585
bor	-10.3591
▁čechů	-10.3592
▁přírody	-10.3599
▁kříž	-10.3613
▁občany	-10.3613
▁ekonomiky	-10.3623
▁dohodu	-10.3624
ška	-10.3625
▁paměť	-10.363
▁policejního	-10.3631
▁programy	-10.3632
▁pe	-10.3635
▁začátek	-10.3636
hy	-10.3637
▁dětské	-10.364
muž	-10.3643
▁průzkum	-10.3646
▁síti	-10.3653
▁demokraté	-10.3656
▁získá	-10.3656
▁necelých	-10.3658
▁opravy	-10.3661
men	-10.3663
▁akcií	-10.3669
▁českým	-10.3671
▁nabídce	-10.3672
▁rána	-10.3675
▁náhradní	-10.3679
▁oběma	-10.3682
▁sítí	-10.3682
▁komory	-10.369
▁aktuálně	-10.369
▁zajištění	-10.3691
bi	-10.3691
▁odpověděl	-10.3699
gen	-10.3702
▁ministerstvu	-10.3702
▁zahrady	-10.3704
▁ovoce	-10.3708
▁ocenění	-10.371
▁hlavě	-10.3713
▁druhy	-10.3715
▁budov	-10.3717
era	-10.3727
▁dané	-10.3728
▁podal	-10.3728
▁měsíci	-10.3729
▁světla	-10.373
▁připustil	-10.3732
▁ředitelství	-10.3735
▁doposud	-10.3737
▁jednalo	-10.3743
▁herní	-10.3743
▁he	-10.3746
▁sérii	-10.3746
▁narodil	-10.375
▁zastupitelé	-10.3753
▁čtenáři	-10.3755
▁nešlo	-10.3758
▁děl	-10.376
▁internetové	-10.3774
▁gb	-10.3779
▁udržet	-10.3784
▁bránit	-10.3786
uz	-10.3789
▁odešel	-10.3791
lek	-10.3794
▁třiceti	-10.3794
▁následující	-10.3795
rt	-10.3798
▁verdikt	-10.3801
▁přijetí	-10.3801
▁využívají	-10.3804
▁zdi	-10.3805
ran	-10.3806
▁otce	-10.3807
▁zázemí	-10.3808
▁odpovědnost	-10.381
▁doktor	-10.381
▁zpravidla	-10.3811
▁moravě	-10.3812
▁architekt	-10.3812
ven	-10.3814
▁základ	-10.3818
ař	-10.3824
▁změn	-10.3828
▁slovy	-10.3829
▁seriálu	-10.3832
▁působení	-10.3833
▁dopad	-10.3833
▁krásné	-10.3833
▁dvořák	-10.3834
▁silnicích	-10.3836
▁soukromé	-10.3839
▁fázi	-10.3841
▁výstavy	-10.3846
▁víte	-10.3854
▁jihu	-10.3854
▁obyvatele	-10.3854
▁putin	-10.3855
▁materiály	-10.3857
▁oběti	-10.3858
▁povede	-10.3863
▁sílu	-10.3866
▁lodi	-10.3866
▁kontakt	-10.3869
▁rozsudek	-10.3869
▁následky	-10.387
▁vyřešit	-10.3871
▁nejdůležitější	-10.3876
▁pražském	-10.3881
▁vodě	-10.3884
▁snažili	-10.3885
▁žil	-10.3886
ejte	-10.3891
▁fotografií	-10.3895
▁svobodu	-10.3895
▁konstrukce	-10.3895
▁vrací	-10.3901
▁postoj	-10.3906
▁znám	-10.3907
▁hana	-10.391
▁pozemky	-10.3921
pla	-10.3924
▁for	-10.3925
▁mladík	-10.3929
▁vadí	-10.3932
nov	-10.3933
▁finančních	-10.3934
▁kartu	-10.3938
▁hlásí	-10.3939
jako	-10.3944
▁dražší	-10.3951
▁řad	-10.3952
▁nemoci	-10.3953
▁hory	-10.3963
vin	-10.3964
▁nelíbí	-10.3975
▁britské	-10.3975
nka	-10.3979
▁nemělo	-10.3985
▁galerie	-10.3985
▁těmi	-10.3987
▁kurz	-10.3992
▁vlak	-10.3992
▁čtyřmi	-10.3992
as	-10.3995
▁letecké	-10.3998
▁letadlo	-10.4
▁vlastních	-10.4
▁mou	-10.4
var	-10.4001
▁daní	-10.4005
▁týdnech	-10.4012
▁rychlé	-10.4015
▁mobilních	-10.4019
▁techniky	-10.402
▁pracovníků	-10.4021
pě	-10.4024
▁rozhodčí	-10.4024
tka	-10.4027
letou	-10.4027
▁kvality	-10.4028
▁slunce	-10.4031
▁týče	-10.4037
▁plochy	-10.4039
▁žádosti	-10.4049
▁nynější	-10.4049
▁jiní	-10.405
▁karet	-10.4051
▁dostalo	-10.4051
▁úpravy	-10.4053
▁momentálně	-10.4056
▁černý	-10.4057
▁vína	-10.4058
▁doufám	-10.4062
▁většiny	-10.4062
▁drog	-10.4064
níci	-10.407
▁výsledku	-10.4072
▁topolánek	-10.4072
▁značně	-10.4072
▁zpočátku	-10.4073
▁okolností	-10.4074
tý	-10.4081
▁neexistuje	-10.4081
▁havel	-10.4089
▁odchod	-10.4093
▁jídla	-10.4095
▁zákazníky	-10.4099
▁zásahu	-10.41
zer	-10.4105
bra	-10.4105
▁věk	-10.4108
▁nejnižší	-10.4108
▁matky	-10.4109
▁záchranné	-10.4111
▁hudby	-10.4124
▁výrobky	-10.4125
▁nechali	-10.4126
▁kancelář	-10.4127
▁pražský	-10.413
▁zápasy	-10.4132
▁zámek	-10.4134
▁yorku	-10.4138
▁zakázky	-10.4139
▁kuchyně	-10.4139
up	-10.4142
▁min	-10.4144
▁pokračování	-10.4144
▁han	-10.4145
▁nebezpečné	-10.4146
▁domácnosti	-10.4147
▁hodí	-10.4153
dat	-10.4157
▁samotný	-10.4158
▁postupu	-10.416
▁dokumenty	-10.4161
jsme	-10.4168
áz	-10.4171
▁udělali	-10.4174
▁konference	-10.418
▁nemohli	-10.4184
▁coby	-10.4184
▁světlo	-10.4196
▁městského	-10.42
▁los	-10.42
▁ladislav	-10.42
zna	-10.4207
▁hledá	-10.4208
▁zůstala	-10.4208
▁zmínil	-10.421
▁vysokých	-10.4211
▁chyby	-10.4212
▁diváků	-10.4216
▁knih	-10.4216
▁pořídit	-10.4219
▁příjmů	-10.4222
plat	-10.4224
▁sexuální	-10.4224
▁daří	-10.4229
▁čtyřech	-10.4232
▁tradičně	-10.4232
▁kapitán	-10.4233
▁elektřiny	-10.4237
▁podmínkách	-10.4237
▁prodává	-10.424
▁zvyšuje	-10.4247
▁mluvčího	-10.4247
▁upřesnil	-10.4249
▁kor	-10.4249
▁formou	-10.4253
▁požádal	-10.4253
▁google	-10.4255
▁víme	-10.4256
▁souladu	-10.4258
▁zjištění	-10.426
▁vys	-10.4262
▁brání	-10.4263
▁stovek	-10.4269
▁ročníku	-10.427
▁hlasy	-10.4273
▁us	-10.4274
▁osobních	-10.4279
▁dob	-10.4281
▁takřka	-10.4284
▁dělal	-10.4285
▁internetových	-10.4285
▁rychlostí	-10.4286
slav	-10.4289
▁zlepšení	-10.429
▁dlouhý	-10.4293
▁úřadů	-10.4297
▁vod	-10.4306
▁novinka	-10.4308
▁odsouzen	-10.4308
▁odpor	-10.4312
▁pádu	-10.4319
▁mise	-10.4322
▁itálie	-10.4326
▁zákonem	-10.4328
žit	-10.4329
▁hrají	-10.433
letý	-10.4334
▁starý	-10.4334
▁takovým	-10.4335
▁kontaktu	-10.4335
▁uskuteční	-10.4336
▁koncert	-10.4343
▁zelených	-10.4343
▁digitální	-10.4346
▁mladá	-10.4347
▁st	-10.4352
nik	-10.4353
▁sníh	-10.4363
▁výstava	-10.4366
▁chybu	-10.4366
▁strom	-10.4369
byla	-10.4374
▁dvojice	-10.438
▁zvířata	-10.4381
lidé	-10.4385
ral	-10.4386
▁nedošlo	-10.439
▁smyslu	-10.4392
první	-10.4396
▁stranou	-10.4397
▁hosté	-10.4401
▁objekt	-10.4403
▁příjemné	-10.4405
▁začínají	-10.4406
▁příležitosti	-10.4406
▁ben	-10.4408
rů	-10.441
▁skvěle	-10.4415
▁vzhled	-10.4415
▁zemědělství	-10.442
▁nebudeme	-10.4423
▁zákony	-10.4426
▁doporučení	-10.4429
nění	-10.4437
▁používání	-10.4438
ment	-10.4439
▁mal	-10.4442
▁očekávání	-10.4444
▁troj	-10.4445
▁nízké	-10.4445
▁oblastí	-10.4452
▁vzdělávání	-10.4453
▁piva	-10.4456
▁tvar	-10.4456
▁řekli	-10.4457
ad	-10.4458
▁sýrii	-10.4463
▁král	-10.4467
net	-10.4468
▁dvd	-10.4474
zatím	-10.4477
▁hraní	-10.4479
▁akcie	-10.4479
ir	-10.4481
ována	-10.4484
▁náhodou	-10.4487
▁produkce	-10.4488
▁jedenáct	-10.4489
▁představitelé	-10.4489
▁natáčení	-10.4489
▁stromů	-10.4492
▁ono	-10.4492
▁třetiny	-10.4504
▁terénu	-10.4506
▁hodnota	-10.4508
▁vyplatí	-10.4508
▁cestujících	-10.4509
▁domov	-10.4514
▁pryč	-10.4516
▁zbytečně	-10.4516
▁car	-10.452
▁vytvoření	-10.452
▁výdaje	-10.4524
▁vlasy	-10.4526
▁kategorii	-10.4527
▁též	-10.4529
▁vyrábí	-10.4532
▁dálnici	-10.4533
hra	-10.4534
▁příjem	-10.4542
▁microsoft	-10.4542
▁pokutu	-10.4544
▁kniha	-10.4546
▁rad	-10.4546
▁poplatek	-10.4548
▁velikost	-10.4557
▁příštích	-10.4558
▁rodin	-10.4559
▁rath	-10.4559
▁funkční	-10.4562
čně	-10.4563
▁postavy	-10.4563
▁mladý	-10.4565
les	-10.4565
▁zas	-10.4568
▁pořadu	-10.4569
▁pozemků	-10.4569
▁atd	-10.457
▁hledání	-10.4571
▁labem	-10.4572
▁řád	-10.4573
▁dluh	-10.4574
▁svědků	-10.4575
▁investiční	-10.4577
▁viděli	-10.4582
▁nejdřív	-10.4586
▁brát	-10.4587
▁kar	-10.4587
▁mediální	-10.4588
▁snímky	-10.4591
▁respektive	-10.4591
▁uživatelů	-10.4592
▁bal	-10.4594
▁vašeho	-10.4599
čet	-10.4602
▁ostrava	-10.4604
▁vrchní	-10.4605
▁ivana	-10.4606
▁ra	-10.4607
▁ukázat	-10.4609
sy	-10.4613
▁občané	-10.4619
ur	-10.4621
▁soupeře	-10.4621
▁změní	-10.4624
▁pojišťovna	-10.463
▁koní	-10.463
zu	-10.4632
▁komunikaci	-10.4634
▁vidím	-10.4641
▁přijel	-10.4649
▁napsala	-10.4651
▁ge	-10.4656
▁fotoaparát	-10.4663
▁některá	-10.4669
▁novináři	-10.467
▁mor	-10.4672
▁radnici	-10.4681
▁bere	-10.4682
▁filmů	-10.4682
▁vidění	-10.4685
dají	-10.4686
▁vlastním	-10.4686
▁návštěvníků	-10.469
▁ukáže	-10.469
▁stála	-10.4691
▁někomu	-10.4691
▁školní	-10.4692
▁znát	-10.4693
▁evropského	-10.4693
▁celsia	-10.4694
▁pobytu	-10.4696
▁servis	-10.4699
▁prodloužení	-10.4699
▁odmítla	-10.4701
pt	-10.4702
▁apple	-10.4705
▁napětí	-10.4708
▁trend	-10.4714
▁ram	-10.4715
hod	-10.4721
▁nahoru	-10.4722
▁venku	-10.4727
ita	-10.4728
▁podstatně	-10.473
▁vývoje	-10.473
▁navrhl	-10.473
▁pobřeží	-10.4737
▁můžu	-10.474
▁systémem	-10.4744
▁důležitá	-10.4745
▁val	-10.4753
▁komentoval	-10.4758
ana	-10.4759
▁lucie	-10.4761
▁automobil	-10.4763
▁originální	-10.4764
▁baterie	-10.4764
áček	-10.4768
stra	-10.4772
▁fakulty	-10.4773
▁ruský	-10.4774
▁komentovat	-10.4775
▁domova	-10.4778
her	-10.4783
▁cítí	-10.4785
▁vyzkoušet	-10.4787
▁tr	-10.4787
ář	-10.4788
čen	-10.4791
ul	-10.4793
▁britský	-10.4794
▁pat	-10.4802
▁bratr	-10.4808
▁informační	-10.4809
▁dostává	-10.4812
▁fe	-10.482
▁obrovský	-10.4821
▁návštěvníky	-10.4823
▁návštěvě	-10.4832
▁úmrtí	-10.4836
uju	-10.4838
▁autě	-10.4843
▁připraven	-10.4845
▁plný	-10.4847
▁upozornila	-10.4849
▁řídí	-10.485
▁obžalovaný	-10.4858
▁ruky	-10.4858
▁filmy	-10.4861
▁prodat	-10.4862
▁výpovědi	-10.4869
▁zástupkyně	-10.4869
▁nestalo	-10.487
▁starých	-10.4871
▁zápase	-10.4872
▁vraždy	-10.4875
▁porovnání	-10.4877
▁východě	-10.4878
▁herec	-10.4878
▁událost	-10.4882
▁zbraň	-10.4885
sp	-10.4889
▁ztráty	-10.4893
▁hranic	-10.4893
▁číně	-10.4893
další	-10.4902
▁profesionální	-10.4905
▁míč	-10.4908
▁vzduch	-10.4913
▁varianta	-10.4918
▁lo	-10.492
▁míří	-10.4921
▁vědí	-10.4921
▁složité	-10.4923
▁sporu	-10.4924
▁ostrov	-10.4925
▁liber	-10.4926
▁kolegové	-10.4929
▁policista	-10.493
▁složení	-10.4936
▁muselo	-10.4936
▁podruhé	-10.494
▁propuštění	-10.4944
▁pes	-10.4945
▁londýně	-10.4954
nil	-10.4961
▁američané	-10.4962
▁těle	-10.497
▁da	-10.4973
▁žádném	-10.4975
▁připadá	-10.4977
eb	-10.4981
átor	-10.4987
▁ubytování	-10.4987
živ	-10.4987
▁trestné	-10.4989
▁vůdce	-10.4991
▁manželství	-10.4992
▁požáru	-10.4997
▁psa	-10.4998
stup	-10.4999
ki	-10.5007
▁trať	-10.5009
▁úspěšně	-10.5009
▁les	-10.5011
kaz	-10.5013
▁řidičů	-10.5015
▁tajné	-10.5016
ron	-10.5018
▁koalici	-10.502
▁ryb	-10.5025
▁udělá	-10.5025
▁výpověď	-10.5026
nové	-10.5029
▁nesouhlasí	-10.503
▁richard	-10.5036
▁stížnost	-10.5037
▁silnější	-10.5039
▁uhlí	-10.504
▁anti	-10.504
oví	-10.5041
▁pečlivě	-10.5045
▁sazby	-10.5047
gu	-10.5049
▁formu	-10.5049
▁daňové	-10.5052
ff	-10.5053
ence	-10.5054
▁zápasů	-10.5058
▁zato	-10.5059
▁lip	-10.506
▁schopnosti	-10.506
▁domnívá	-10.5062
▁pražských	-10.5064
▁vzápětí	-10.507
▁školách	-10.507
čin	-10.5072
▁následujících	-10.5077
▁nemovitosti	-10.5077
dra	-10.5077
▁silně	-10.5082
▁jinými	-10.5083
▁žádá	-10.5084
▁krve	-10.5084
▁útoků	-10.5085
ers	-10.5086
▁vámi	-10.5086
▁týkající	-10.5087
bil	-10.5087
▁pravidel	-10.51
▁rekord	-10.5104
▁expozice	-10.5105
▁skvělé	-10.5109
▁dostaly	-10.5114
▁par	-10.5121
▁stanislav	-10.5127
▁pouhých	-10.5127
▁uživatel	-10.5128
▁definitivně	-10.5132
▁předpokládá	-10.5132
▁zemana	-10.5137
▁software	-10.5138
▁úvodní	-10.5142
pit	-10.5148
▁mluvil	-10.5148
▁dvanácti	-10.5149
▁slovensko	-10.515
sl	-10.5159
ička	-10.516
▁dávají	-10.5161
ok	-10.5162
mer	-10.5165
▁testy	-10.5167
▁...	-10.5171
▁systémy	-10.5172
▁dávat	-10.5174
▁van	-10.5176
ilo	-10.5182
▁letišti	-10.5182
▁fanoušci	-10.5185
▁nemohla	-10.5189
▁schopnost	-10.5191
lan	-10.5192
ičky	-10.5194
▁našla	-10.5194
▁aplikací	-10.5195
▁unii	-10.5197
▁údolí	-10.5201
▁festival	-10.5206
▁snaha	-10.5208
▁zkušeností	-10.5213
klá	-10.522
land	-10.5223
▁atmosféru	-10.5223
▁líčení	-10.5223
▁festivalu	-10.5224
▁rozporu	-10.5225
▁radí	-10.5226
▁souhlas	-10.524
led	-10.5244
kova	-10.5245
vid	-10.5245
▁zní	-10.5248
▁chybět	-10.5253
▁trump	-10.5254
▁domácím	-10.5254
kla	-10.5255
▁profesor	-10.5256
▁najdou	-10.5257
čení	-10.5261
▁magistrát	-10.5265
▁mat	-10.527
▁krátké	-10.5273
▁obchodů	-10.5273
▁restauraci	-10.5275
▁produkt	-10.528
▁vysvětlení	-10.5283
▁snímek	-10.5286
▁ukazují	-10.5287
bez	-10.5291
▁kw	-10.5292
▁představenstva	-10.5292
▁koruny	-10.5295
ns	-10.5297
▁jasno	-10.5299
▁rozhovor	-10.5302
▁krajských	-10.5303
▁patrně	-10.5303
▁izrael	-10.5307
▁požár	-10.5309
▁bio	-10.5312
▁řídit	-10.5317
▁úsek	-10.5323
▁historické	-10.5332
▁inter	-10.5332
▁materiálů	-10.5332
ard	-10.5332
um	-10.5334
bar	-10.5334
▁fakultní	-10.5336
▁kdybych	-10.5338
ováním	-10.5343
bl	-10.5344
mám	-10.5344
▁fischer	-10.5346
▁textu	-10.535
▁ostatními	-10.535
▁odborné	-10.535
▁tomáše	-10.5355
▁nemovitostí	-10.5355
▁celkový	-10.5356
▁překvapení	-10.5357
letá	-10.536
▁úředníci	-10.5361
▁vynikající	-10.5365
▁starosty	-10.5367
▁vysoce	-10.5367
▁vysvětlit	-10.5367
▁redakce	-10.5368
▁apod	-10.5371
▁and	-10.5373
▁kostel	-10.5379
▁důležitý	-10.5381
voz	-10.5385
▁tri	-10.5387
▁bohuslav	-10.5387
▁nechala	-10.5387
▁úspěchu	-10.5388
▁elektrárny	-10.5391
▁sluneční	-10.5391
▁stadionu	-10.5396
▁cit	-10.5397
▁dovolit	-10.54
▁konkurence	-10.54
▁velitel	-10.5404
▁polo	-10.5414
▁ga	-10.5414
▁nákupu	-10.5414
pol	-10.5415
▁mozku	-10.5415
▁jistotu	-10.542
▁slíbil	-10.5421
ovka	-10.5426
▁popis	-10.5428
▁chyba	-10.5431
▁druhu	-10.5433
▁vypráví	-10.5435
▁poskytuje	-10.5443
▁slibuje	-10.5445
▁evropskou	-10.5446
▁stopy	-10.5447
▁volné	-10.545
mít	-10.5455
▁návštěvy	-10.5456
▁pen	-10.5467
▁rozhodovat	-10.5468
▁povinnosti	-10.5475
▁ulic	-10.5478
▁nimiž	-10.5479
▁nev	-10.548
stat	-10.5482
▁masa	-10.5485
ér	-10.5486
▁instituce	-10.5487
▁měření	-10.5487
▁třídě	-10.5492
▁velkém	-10.5495
▁praxe	-10.5496
▁těšit	-10.5502
▁považují	-10.5505
▁uzavřel	-10.5513
▁podél	-10.5514
▁linku	-10.5517
bude	-10.552
▁volně	-10.553
▁zájmy	-10.5531
▁mac	-10.5532
▁interiéru	-10.5534
▁najde	-10.5534
▁efekt	-10.5537
▁problému	-10.554
ri	-10.554
▁rozsahu	-10.5541
dla	-10.5544
▁výhradně	-10.5544
▁osvětlení	-10.5545
čr	-10.5549
pad	-10.5552
▁správa	-10.5555
▁dokončení	-10.5555
procentní	-10.5556
▁trestného	-10.5559
▁pomohl	-10.556
▁místem	-10.5561
▁čtyřicet	-10.5564
▁mrtvých	-10.5566
▁metropole	-10.5567
▁poslance	-10.557
přes	-10.5576
▁kom	-10.5576
▁otevřít	-10.5579
▁polsku	-10.5579
▁jmenuje	-10.5579
▁sekund	-10.5579
▁programů	-10.5586
▁politik	-10.5587
▁york	-10.5592
▁posléze	-10.5597
▁svědomí	-10.5597
op	-10.5598
▁potraviny	-10.5599
▁modré	-10.5606
▁německý	-10.5608
▁obviněn	-10.5611
rus	-10.5612
bal	-10.5613
▁knihu	-10.5613
▁odejít	-10.5614
▁rizika	-10.5622
▁uzavřena	-10.5623
▁sledování	-10.5624
▁sobotní	-10.5625
▁trasy	-10.5631
▁něž	-10.5639
ud	-10.564
ily	-10.564
▁kombinaci	-10.5644
▁koupil	-10.5648
iv	-10.5649
▁bojí	-10.5656
▁formě	-10.5657
▁budově	-10.5658
▁doplňuje	-10.5662
▁zůstávají	-10.5668
▁zná	-10.5675
▁med	-10.5675
▁průběh	-10.5679
▁trhy	-10.5681
▁chyb	-10.5682
▁dětství	-10.5686
▁občanské	-10.5691
▁lenka	-10.5691
▁star	-10.5692
▁podat	-10.5699
▁pilot	-10.5702
▁zřejmé	-10.5704
▁stavbě	-10.5706
▁přiblížil	-10.5708
▁vydrží	-10.5708
tová	-10.5709
▁oblíbené	-10.5711
▁trošku	-10.5716
▁chod	-10.5717
▁sex	-10.5718
íme	-10.572
▁nabídl	-10.5721
▁snadné	-10.5721
▁označení	-10.5725
▁vešker	-10.5726
▁přidal	-10.5727
▁zahradě	-10.573
▁prozatím	-10.5733
▁dohoda	-10.5734
▁sezonu	-10.574
nem	-10.5741
▁nhl	-10.5741
▁charakter	-10.5745
▁cukr	-10.5749
sou	-10.5749
hle	-10.5754
▁způsobil	-10.5762
áci	-10.5762
▁vedou	-10.5764
▁hu	-10.5768
▁čelí	-10.5772
▁pátrání	-10.5779
▁objevují	-10.578
▁atraktivní	-10.5783
▁prosadit	-10.5783
▁čtrnáct	-10.5787
▁změnil	-10.5792
▁skončit	-10.5795
▁vybírat	-10.5797
▁získání	-10.5798
ble	-10.5798
▁brněnské	-10.5798
▁směr	-10.5799
pat	-10.58
▁produkty	-10.5802
▁podobu	-10.5807
▁bush	-10.5811
rov	-10.582
▁rostlin	-10.582
▁bruselu	-10.582
ts	-10.5823
▁pozadí	-10.5825
▁senát	-10.5829
▁přinese	-10.583
▁předměty	-10.5836
▁rozhodování	-10.5838
▁pokoje	-10.5839
▁platební	-10.5839
▁návštěvu	-10.5842
▁naznačil	-10.5842
▁postavil	-10.5846
inu	-10.5847
▁adrese	-10.5848
vod	-10.5848
▁times	-10.5849
▁partnera	-10.585
▁divadle	-10.5854
▁senátor	-10.5856
han	-10.5857
▁předsedou	-10.5863
▁stejném	-10.5865
ováno	-10.5865
hr	-10.5867
▁podobná	-10.5868
▁věznice	-10.5872
▁komu	-10.5874
▁jdou	-10.5875
▁zvýšil	-10.5878
▁hvězd	-10.5878
hlí	-10.5879
▁automobilů	-10.588
tv	-10.5887
▁dřevo	-10.5889
▁neplatí	-10.5891
▁čtení	-10.5891
▁uvidíme	-10.5896
▁přiznává	-10.5899
ag	-10.5902
▁ruských	-10.5903
▁sp	-10.5904
▁místostarosta	-10.5905
▁konat	-10.591
▁vyjádřit	-10.591
▁finance	-10.5911
▁jaderné	-10.5912
elné	-10.5915
▁výrobě	-10.5918
▁myslíte	-10.5918
▁záznam	-10.5918
▁partner	-10.5918
▁energii	-10.5923
▁barev	-10.5923
▁rodinné	-10.5926
▁moravy	-10.5928
▁zmíněné	-10.5931
▁mach	-10.5931
▁man	-10.5933
▁hokej	-10.5933
▁poli	-10.5933
ia	-10.5937
▁ri	-10.594
res	-10.5942
▁nejlepších	-10.5943
▁soubor	-10.5944
▁vývoji	-10.5947
▁olomouci	-10.5947
▁drah	-10.5949
▁limit	-10.5949
▁max	-10.5953
čátkem	-10.5956
jsou	-10.5962
ik	-10.5963
▁přijmout	-10.5967
▁svědčí	-10.5968
ion	-10.5974
▁ministrem	-10.5985
▁stejná	-10.5985
▁výroba	-10.5985
▁přátel	-10.5992
▁lib	-10.5993
▁událostí	-10.5995
například	-10.5995
▁nikomu	-10.5997
▁sportu	-10.5998
▁politickou	-10.6005
▁branku	-10.6006
▁vedla	-10.6015
▁určitou	-10.6017
▁op	-10.6021
▁drobné	-10.6026
▁podpořit	-10.6028
▁papír	-10.6028
▁provozní	-10.603
cího	-10.6035
▁smluv	-10.604
lez	-10.6047
▁malého	-10.6047
▁tváří	-10.605
▁vztahů	-10.6051
▁ukrajině	-10.6054
▁skončení	-10.6054
ndr	-10.6056
▁pravé	-10.6059
▁dopravního	-10.6062
▁obří	-10.6069
žen	-10.6069
▁přepočtu	-10.6071
▁podobného	-10.6072
▁svaz	-10.6072
▁maminka	-10.6073
▁str	-10.6073
▁luxusní	-10.6077
▁dostávají	-10.6083
svět	-10.6086
▁litrů	-10.6087
kat	-10.6087
▁oprav	-10.6091
▁vinu	-10.6095
▁signál	-10.6096
▁metr	-10.6099
▁přesvědčit	-10.6103
▁ruského	-10.6109
▁míře	-10.611
▁uprchlíků	-10.6111
▁tisk	-10.6113
▁dostanete	-10.6115
▁budovu	-10.6116
▁tvář	-10.6116
▁pád	-10.6116
▁rychleji	-10.6123
▁trvalo	-10.6129
▁zelené	-10.6143
ovky	-10.6144
▁americe	-10.6146
▁projev	-10.6151
▁lékařské	-10.6155
ovaného	-10.6159
▁spolupracovat	-10.6159
kop	-10.6162
▁sankce	-10.6165
▁zážitek	-10.6165
▁firmou	-10.6165
▁diskuse	-10.6166
▁volný	-10.6168
▁přípravy	-10.617
▁stupeň	-10.6171
▁rozměry	-10.6178
▁jistý	-10.6178
▁výrobků	-10.6185
▁radě	-10.6192
▁poradce	-10.6193
▁sklo	-10.6194
form	-10.6198
▁dotaci	-10.6203
▁mandát	-10.6207
jedná	-10.6208
▁přechod	-10.6212
▁zajímavý	-10.6213
▁povedlo	-10.6214
▁průmysl	-10.6216
lep	-10.6222
▁kilogramů	-10.6225
▁posledního	-10.6232
▁objevit	-10.6232
▁varoval	-10.6235
▁washington	-10.6235
▁zastavil	-10.6237
zen	-10.6242
▁zpěvák	-10.6243
▁vznik	-10.6245
van	-10.6247
▁individuální	-10.6249
čer	-10.6249
▁dřeva	-10.625
▁nestačí	-10.625
▁klienty	-10.6251
lý	-10.6253
▁autobus	-10.6253
▁předvolební	-10.6255
▁držet	-10.6256
▁vlastního	-10.6258
▁pre	-10.6259
▁stanovisko	-10.626
▁teplota	-10.6262
ený	-10.6267
▁jízdní	-10.6268
▁módní	-10.6268
▁ms	-10.6275
▁novin	-10.6275
▁současná	-10.6278
▁akademie	-10.6279
▁číny	-10.6281
ele	-10.6283
▁azyl	-10.6287
▁čtvrti	-10.6291
▁ml	-10.6292
▁rychlejší	-10.6293
▁dotací	-10.6294
▁šetření	-10.6299
▁okruhu	-10.6299
▁kvalita	-10.6299
▁soudí	-10.63
▁výrazné	-10.6304
▁vaši	-10.6309
ex	-10.631
▁fanoušků	-10.6312
▁parkoviště	-10.6317
▁afp	-10.6318
▁dobou	-10.6319
▁nejmenší	-10.632
ity	-10.6322
▁příčinou	-10.6324
ád	-10.6326
▁nahradit	-10.6331
pá	-10.6332
▁vyhrát	-10.6334
▁vesnice	-10.6336
▁vyhlášení	-10.6336
▁zrušil	-10.6338
nky	-10.634
▁nákladní	-10.634
▁fotbalové	-10.6347
stan	-10.6349
▁podnikatele	-10.635
▁městských	-10.6356
▁lídr	-10.6361
▁ovlivnit	-10.6362
▁jimi	-10.6366
ností	-10.637
so	-10.637
▁josefa	-10.6371
▁čtverečních	-10.6383
▁el	-10.6383
▁soupeř	-10.6383
▁bývají	-10.6389
▁vlaky	-10.6391
▁účasti	-10.6392
▁výstavbu	-10.6394
tech	-10.6395
▁jakékoliv	-10.6397
▁neštěstí	-10.6402
▁titulu	-10.6405
▁volit	-10.6406
▁poměr	-10.6406
▁počítači	-10.6409
▁představí	-10.641
▁žebříčku	-10.6414
▁původu	-10.6414
▁interiér	-10.642
▁projevu	-10.642
▁nehoda	-10.6422
▁seriál	-10.6424
▁říkám	-10.6427
▁rodinou	-10.6427
▁stálo	-10.6428
▁domácích	-10.6433
nd	-10.6433
▁zákonů	-10.644
▁nikde	-10.6447
▁meziročně	-10.6447
▁podrobnosti	-10.6447
▁příjmu	-10.6452
▁turisty	-10.6454
▁uživatele	-10.6455
▁nejlepším	-10.6457
pis	-10.6459
▁nejrůznější	-10.6461
dnes	-10.6461
▁tábor	-10.6462
▁konfliktu	-10.6463
▁hus	-10.6463
▁fungování	-10.6465
▁prohlásila	-10.6466
▁vzniknout	-10.6467
fer	-10.6472
▁ropy	-10.6477
▁přítomnost	-10.6477
▁bodu	-10.648
▁výšky	-10.6482
▁současných	-10.6486
ista	-10.6489
měl	-10.6491
▁odpovědi	-10.6493
▁nemusíte	-10.6493
▁opustit	-10.6498
▁projít	-10.6499
itu	-10.6502
lov	-10.6504
▁kandidátů	-10.6506
▁představu	-10.6508
▁dopravních	-10.6508
▁hudbu	-10.6511
▁lidská	-10.6519
▁smlouvě	-10.6524
▁rostoucí	-10.6524
▁vzniká	-10.6524
▁jaromír	-10.6527
▁snímku	-10.6531
▁řešením	-10.6535
▁vyhrála	-10.6536
▁zájemce	-10.6536
▁stop	-10.6539
▁výhody	-10.6539
▁obrat	-10.6542
▁zvýší	-10.6543
▁investovat	-10.6545
▁vytváří	-10.6545
▁zastupitel	-10.6547
▁platy	-10.655
ňák	-10.6556
▁soukromí	-10.6556
▁george	-10.6558
▁účastníků	-10.6558
▁důvěru	-10.6563
▁finančně	-10.6563
kol	-10.6565
▁mimořádně	-10.6566
▁hlava	-10.6569
▁metropoli	-10.657
▁nařízení	-10.6573
▁správce	-10.6573
uš	-10.6574
▁němci	-10.6574
▁dan	-10.6574
▁provozuje	-10.6576
▁usnesení	-10.6576
▁nepatří	-10.658
▁vojáky	-10.658
▁pacienti	-10.658
▁žádostí	-10.6583
▁dodávky	-10.6583
▁startu	-10.6584
▁koncept	-10.6585
▁výrobní	-10.6586
▁odhaduje	-10.6587
▁doporučuje	-10.6588
▁znamenat	-10.6589
▁hudba	-10.659
pi	-10.6593
▁překvapivě	-10.6595
ecký	-10.6596
▁turisté	-10.6603
▁evropa	-10.6604
▁dneska	-10.6605
▁sehnat	-10.6605
▁pohybují	-10.6608
▁uplynulý	-10.661
▁záležitosti	-10.6612
▁samé	-10.6616
▁jet	-10.6618
▁každému	-10.6621
▁slovenské	-10.6622
▁výhodou	-10.6622
▁známá	-10.6622
▁papež	-10.6623
▁dokumentu	-10.6623
▁group	-10.6624
▁poplatků	-10.6624
▁desky	-10.6625
▁padesáti	-10.6626
▁šedesát	-10.6626
▁současného	-10.663
▁představil	-10.6632
▁čistě	-10.6634
▁válka	-10.6635
▁parlament	-10.6636
▁nastoupil	-10.6636
▁jízdu	-10.6638
▁studenty	-10.664
▁každoročně	-10.6644
▁off	-10.6646
▁vozidlo	-10.6648
▁odtud	-10.6649
▁bankovní	-10.665
▁víno	-10.665
▁intenzivní	-10.6655
▁hejtmana	-10.6657
▁podniků	-10.6661
▁objemu	-10.6667
▁klause	-10.6667
▁střediska	-10.6668
▁vyšlo	-10.6669
ňuje	-10.667
▁vzor	-10.6674
▁potvrdit	-10.6675
▁někam	-10.6675
▁generálního	-10.6677
▁jednoduchý	-10.6683
▁průměrná	-10.6687
▁těžce	-10.6688
▁staveb	-10.669
▁osobnosti	-10.669
▁uzavření	-10.6692
▁středních	-10.6693
ss	-10.6697
▁odstranění	-10.6699
▁con	-10.67
▁podporovat	-10.6701
▁rekordní	-10.6705
▁autobusy	-10.6705
▁divize	-10.6708
▁vazbě	-10.6708
▁situací	-10.6708
▁peter	-10.6712
▁reagovat	-10.6715
▁produktů	-10.6719
▁tip	-10.6724
▁možno	-10.6725
▁hlad	-10.6729
▁strážníci	-10.6731
▁dub	-10.6731
▁široké	-10.674
▁city	-10.6741
fu	-10.6742
kromě	-10.6742
▁přípravu	-10.6743
▁vědomí	-10.6744
▁personální	-10.6744
▁minus	-10.6746
▁klienti	-10.6747
▁globální	-10.6748
▁adam	-10.675
▁mas	-10.675
▁prozradil	-10.6751
▁ii	-10.6753
▁čekal	-10.6755
▁dokumentů	-10.6756
icky	-10.6756
▁nevadí	-10.6756
▁cenou	-10.6758
▁virtuální	-10.6758
▁bavit	-10.6758
▁tito	-10.6761
▁kost	-10.6762
▁volba	-10.6767
▁zastupitelstva	-10.6768
▁divadelní	-10.6773
▁výlet	-10.6775
▁věděli	-10.6775
▁pěkně	-10.6776
▁bílého	-10.6778
▁přírodě	-10.6781
ovicích	-10.6782
▁román	-10.6785
▁letu	-10.6785
▁jiném	-10.6786
▁populace	-10.6788
▁uvedli	-10.6791
▁sociálně	-10.6795
▁nejvyššího	-10.6796
▁najdeme	-10.6797
▁symbol	-10.6798
▁agentuře	-10.6802
▁naděje	-10.6802
razí	-10.6802
rn	-10.6807
▁starostka	-10.6809
▁starších	-10.6813
▁narození	-10.6815
▁vlastnosti	-10.6821
▁moment	-10.6824
▁hrozně	-10.6829
▁pozemku	-10.6835
▁parkovací	-10.6838
▁bolesti	-10.684
▁ostravy	-10.6842
bol	-10.6847
▁mateřské	-10.6855
▁médiích	-10.6858
tel	-10.6859
nt	-10.6861
▁psaní	-10.6861
▁zkoušky	-10.6862
▁hd	-10.6864
▁učitel	-10.6865
▁fotograf	-10.6867
▁ústav	-10.6869
▁zóny	-10.687
▁studium	-10.687
▁účastníci	-10.6878
ismu	-10.6878
▁neměly	-10.688
▁herečka	-10.6881
izace	-10.6885
▁takzvan	-10.6887
▁menších	-10.6888
▁týmy	-10.6889
▁facebooku	-10.6892
▁zákazník	-10.6896
▁látek	-10.6896
▁krevní	-10.6897
▁zemřelo	-10.6897
▁jel	-10.6905
▁itálii	-10.6909
zní	-10.691
▁naleznete	-10.691
▁vážné	-10.6912
▁přímé	-10.6912
▁soudkyně	-10.6912
):	-10.6915
▁povrchu	-10.6915
čík	-10.6916
ker	-10.6917
▁založil	-10.6918
▁mých	-10.6918
▁přiznání	-10.6919
▁volání	-10.6919
▁dvoj	-10.6922
▁disk	-10.6924
wa	-10.6926
▁městský	-10.6927
▁har	-10.6927
▁pravděpodobné	-10.693
▁značné	-10.693
▁jaroslava	-10.6931
▁stránek	-10.6931
▁přelomu	-10.6937
▁naproti	-10.6938
▁ranní	-10.6948
▁úsilí	-10.695
▁průmyslové	-10.6951
▁góly	-10.6953
▁důkaz	-10.6954
▁oken	-10.6955
▁konkurenční	-10.6955
ovaní	-10.6956
▁trestního	-10.696
▁experti	-10.696
▁rozvoje	-10.6961
▁představují	-10.6963
▁brněnský	-10.6964
▁bolest	-10.6966
▁škod	-10.6967
▁aplikaci	-10.6971
usa	-10.6971
▁pán	-10.6975
▁třetina	-10.6983
tit	-10.6983
viz	-10.6989
ak	-10.699
▁zabezpečení	-10.6994
▁organizaci	-10.6998
▁lev	-10.6999
▁is	-10.6999
▁ostře	-10.6999
▁kandidát	-10.7001
▁michaela	-10.7003
▁komunisté	-10.7004
tur	-10.7004
▁úvahu	-10.7004
ika	-10.7005
▁dohodě	-10.7007
▁stanic	-10.7009
▁liberec	-10.701
▁řekne	-10.701
▁zvolit	-10.7011
▁mimochodem	-10.7013
▁telefonní	-10.7016
ismus	-10.7018
▁vyšla	-10.702
tře	-10.702
vz	-10.7021
▁příběhy	-10.7022
▁světového	-10.7022
▁generál	-10.7022
▁nějakého	-10.7024
▁skutečné	-10.7024
▁městu	-10.7026
▁displeje	-10.7029
▁břehu	-10.7036
▁incident	-10.7039
▁nehod	-10.7042
mluv	-10.7043
▁hr	-10.7044
nické	-10.7045
▁novotný	-10.7048
por	-10.7049
▁soudy	-10.7049
stí	-10.7051
▁navštívit	-10.7053
▁klesá	-10.7053
▁světových	-10.7054
▁snažíme	-10.706
▁metra	-10.7062
▁akční	-10.7064
▁žalobce	-10.7068
▁červené	-10.7069
▁plnění	-10.7072
▁kuchyni	-10.7073
▁nevěděl	-10.7077
▁čaj	-10.7085
▁institucí	-10.7087
mail	-10.7094
▁kůže	-10.7094
▁pokračoval	-10.7098
▁čínské	-10.7102
▁vrátila	-10.7102
▁požádat	-10.7108
kový	-10.711
▁miss	-10.7111
par	-10.7114
▁detaily	-10.7116
▁podpoře	-10.7116
▁přípravě	-10.7117
▁kamarád	-10.7117
▁hlasovat	-10.7121
eš	-10.7124
▁miroslava	-10.7127
ller	-10.7127
pen	-10.7127
▁vzp	-10.7129
▁místního	-10.7132
▁minulém	-10.7132
▁zlín	-10.7132
▁otevřené	-10.7132
▁strategie	-10.7136
▁lesa	-10.7139
▁znamenalo	-10.714
▁koupi	-10.7141
▁hospodaření	-10.7143
▁hmotnost	-10.7147
▁vít	-10.7148
▁pospíšil	-10.7149
▁úvěru	-10.715
sová	-10.715
▁reformy	-10.715
▁obchody	-10.7154
▁podobnou	-10.7157
▁nemáte	-10.7159
íte	-10.7161
▁mimořádné	-10.7163
vé	-10.7163
▁rozhodující	-10.7168
▁far	-10.7171
▁jasný	-10.7173
▁fondy	-10.7175
▁olej	-10.7177
▁skončilo	-10.7179
▁jazyk	-10.718
▁samy	-10.7184
▁psát	-10.7191
mí	-10.7197
▁nastavit	-10.7197
▁knize	-10.7198
čkou	-10.7199
▁nemocnic	-10.7202
mann	-10.7203
▁lodí	-10.7205
▁uživatelé	-10.7209
▁myslel	-10.7212
mil	-10.7213
▁pokusil	-10.7215
▁právník	-10.7217
▁lesní	-10.7217
▁testu	-10.7221
▁zastavení	-10.7222
▁připraveni	-10.7222
▁kolega	-10.7223
▁pokaždé	-10.7225
▁vybral	-10.7228
▁anna	-10.7229
▁moři	-10.7233
▁stolu	-10.7233
▁průkaz	-10.7235
▁významné	-10.7239
▁os	-10.7242
▁bývalá	-10.7244
▁trestný	-10.7245
střel	-10.7245
▁případem	-10.7247
▁líčí	-10.7247
▁pomáhat	-10.7248
▁letadel	-10.7249
▁vyhnout	-10.7252
▁značka	-10.7252
ger	-10.7252
▁obránce	-10.7254
▁stadion	-10.7254
nes	-10.7255
▁ročník	-10.7255
leg	-10.7255
pou	-10.7259
▁absolutní	-10.7259
▁paříži	-10.726
▁přístupu	-10.7261
▁cítit	-10.7261
▁fotbal	-10.7262
ená	-10.7264
▁šťastný	-10.7268
▁bližší	-10.7276
▁čtvrté	-10.7278
▁provést	-10.7279
▁pořad	-10.7279
▁hradci	-10.7281
▁koná	-10.7281
▁těmto	-10.7283
sla	-10.7284
▁boty	-10.7287
▁správný	-10.7287
▁strávil	-10.7288
▁nor	-10.7297
ang	-10.7301
▁obhájce	-10.7303
▁vlastnictví	-10.7303
▁musely	-10.7305
koli	-10.7307
▁scénář	-10.7309
▁větších	-10.7309
▁schwarzenberg	-10.7313
▁zajistí	-10.7325
▁policií	-10.7325
▁nejstarší	-10.7327
▁plzně	-10.7332
▁dřevěné	-10.7332
▁vraždu	-10.7336
rd	-10.734
▁schválení	-10.7341
dob	-10.7342
▁dokázali	-10.7344
▁vladimíra	-10.7346
▁nasazení	-10.7349
icích	-10.735
▁známých	-10.7352
čková	-10.7352
▁palubě	-10.7353
▁vyloučení	-10.7355
chová	-10.7363
▁jakékoli	-10.7366
▁šli	-10.7366
▁princip	-10.7367
▁brankář	-10.7367
▁střel	-10.7368
▁přeci	-10.7371
▁neroz	-10.7371
jedna	-10.7372
▁pachatele	-10.7373
▁trase	-10.7374
▁zahrnuje	-10.7374
ičku	-10.7377
zem	-10.7378
▁přišly	-10.738
▁instalaci	-10.7381
chceme	-10.7384
íček	-10.7384
▁vydala	-10.7385
▁ukrajiny	-10.7385
▁poskytnout	-10.7389
▁kontrolní	-10.739
▁převzal	-10.739
▁důraz	-10.7392
▁okresní	-10.7392
▁uvidí	-10.7393
▁považuji	-10.7394
pak	-10.7397
▁činů	-10.7405
tan	-10.7406
▁czech	-10.7414
▁čisté	-10.7418
▁prestižní	-10.7421
▁pacienta	-10.7423
liv	-10.7423
▁naději	-10.7426
jenže	-10.7428
▁aleš	-10.7428
▁aktivně	-10.7429
▁ostrově	-10.743
▁stůl	-10.7431
▁podporou	-10.7438
▁nástroj	-10.744
▁shromáždění	-10.7441
▁odhadů	-10.7441
▁cha	-10.7441
▁francouzské	-10.7444
▁patřil	-10.7448
ero	-10.7449
▁obor	-10.745
▁rozdíly	-10.7454
▁součást	-10.7456
▁dceru	-10.7456
▁třináct	-10.7456
▁žalobu	-10.7457
▁odstranit	-10.746
gan	-10.746
▁kabinet	-10.7461
kro	-10.7462
▁tvůrci	-10.7462
▁výhled	-10.7464
▁typy	-10.7465
▁zakázku	-10.7467
▁hráli	-10.7467
tní	-10.7469
▁scény	-10.747
▁elektronické	-10.7475
▁západ	-10.7476
▁motoru	-10.7481
▁rakousku	-10.7482
▁vyjednávání	-10.7483
▁chlapec	-10.7487
▁sam	-10.7488
▁cca	-10.7488
▁dostupné	-10.7488
▁tou	-10.749
▁pochod	-10.7491
▁důchodu	-10.7492
nc	-10.7493
leh	-10.7493
ávají	-10.7498
▁zásadně	-10.7498
vil	-10.7499
▁kap	-10.7499
▁slabší	-10.7503
▁čsob	-10.7503
▁dodat	-10.7507
▁pacienty	-10.7508
▁běží	-10.7511
▁starost	-10.7514
▁cestování	-10.7517
▁zbytečné	-10.7518
▁starého	-10.7528
▁okolní	-10.7531
icí	-10.7531
▁postav	-10.7537
▁nějakým	-10.7542
hal	-10.7543
skem	-10.7544
▁stan	-10.7544
▁kauzy	-10.7545
▁pachatel	-10.7546
▁manželkou	-10.7552
sh	-10.7553
▁užívání	-10.7556
▁opravu	-10.7558
▁říkat	-10.7559
▁různými	-10.7562
▁souborů	-10.7562
▁úkolem	-10.7565
▁sněmovna	-10.7568
▁občan	-10.7569
▁každopádně	-10.7569
▁nejsme	-10.757
▁drahé	-10.7573
▁pomáhají	-10.7573
ostí	-10.7575
▁fo	-10.7576
▁snažila	-10.7577
▁neděle	-10.7588
ovského	-10.7591
▁stěny	-10.7593
▁kariéru	-10.7597
▁vznikne	-10.7601
▁nemůžu	-10.7607
vala	-10.7609
▁nejlevnější	-10.7611
▁vším	-10.7612
▁odbor	-10.7615
▁zákazníkům	-10.7618
▁týdně	-10.7618
▁podezřelý	-10.7619
▁palm	-10.7621
▁datum	-10.7622
▁dna	-10.7623
▁narazil	-10.763
všichni	-10.7631
▁blíží	-10.7632
▁rock	-10.7633
▁kůži	-10.7633
▁br	-10.7638
▁opustil	-10.7644
▁kohout	-10.7645
▁legendární	-10.7655
▁přede	-10.7655
ještě	-10.7656
▁nejnovější	-10.7658
▁hodnotí	-10.7659
▁chlapce	-10.7659
▁pokusu	-10.7668
▁restaurací	-10.7668
▁loňský	-10.7669
▁vyjadřovat	-10.7669
▁špatný	-10.7671
▁zvuk	-10.7671
▁původního	-10.7674
▁zvolen	-10.7675
▁sleduje	-10.7676
▁orgány	-10.7676
▁fin	-10.7679
▁pokuty	-10.768
▁tradice	-10.768
▁snahu	-10.7682
▁port	-10.7683
▁zjistila	-10.7684
▁zástupců	-10.7688
▁noviny	-10.7688
▁objevili	-10.769
▁diskusi	-10.7699
▁hod	-10.7705
▁zásob	-10.7708
▁učí	-10.771
▁náskok	-10.771
boj	-10.7712
▁přinesl	-10.7712
▁kabinetu	-10.7712
▁karlovy	-10.7714
▁léto	-10.7714
▁jízdě	-10.7715
▁mezinárodního	-10.7717
▁podmínkou	-10.7717
▁pal	-10.7717
▁výrobců	-10.7717
▁nýbrž	-10.7721
▁vyšetřovatelé	-10.7726
pos	-10.7729
▁ostatním	-10.7731
▁tajemník	-10.7731
▁těhotenství	-10.7736
kin	-10.7741
▁luc	-10.7742
▁pozdě	-10.7742
▁lidovci	-10.7743
▁ran	-10.7743
▁webových	-10.7744
▁prezidentské	-10.7745
▁příběhu	-10.7746
mon	-10.7749
▁památky	-10.775
nách	-10.7751
ič	-10.7754
▁navýšení	-10.776
▁řecko	-10.7761
▁některým	-10.7762
▁elektrické	-10.7766
▁příprava	-10.7766
▁závody	-10.7768
▁nemohu	-10.7769
jeho	-10.7769
▁duchu	-10.7771
▁android	-10.7771
▁spoření	-10.7773
▁vytvořil	-10.7776
▁výhodu	-10.7778
▁léčbu	-10.778
▁vloni	-10.778
▁náměstka	-10.7787
▁pobočky	-10.7787
▁hovořil	-10.7788
▁tenhle	-10.7791
▁zaměstnavatel	-10.7792
▁přesné	-10.7795
▁nechtěla	-10.7803
▁čína	-10.7808
▁přenos	-10.7809
ll	-10.7815
▁hvězdy	-10.7815
▁kontrolou	-10.7817
del	-10.782
▁benzin	-10.7821
▁čela	-10.7822
▁pochybení	-10.7825
iště	-10.783
▁kratší	-10.7832
▁vstříc	-10.7835
rs	-10.7837
ujete	-10.7838
▁termínu	-10.7838
▁semifinále	-10.7839
▁průměr	-10.784
drž	-10.7844
▁vyšel	-10.7845
▁album	-10.7846
▁značek	-10.7847
právě	-10.7849
▁novinkou	-10.785
mobile	-10.7857
▁hledají	-10.7857
▁kamery	-10.7862
▁bur	-10.7863
ig	-10.7864
▁pravidelné	-10.7866
▁varování	-10.7867
▁naplno	-10.7869
▁využil	-10.7875
▁snímků	-10.7876
ian	-10.7877
▁motiv	-10.7878
▁německého	-10.7879
▁výkonem	-10.788
▁normálně	-10.788
▁třetinu	-10.788
▁osobu	-10.7884
▁ivo	-10.7885
▁odehrál	-10.7886
▁nova	-10.7892
▁vzniklo	-10.7893
▁náhradu	-10.7893
▁řeči	-10.7897
▁gramů	-10.7897
▁map	-10.7898
▁věnoval	-10.7899
▁větším	-10.7901
▁ztratil	-10.7901
▁ša	-10.7906
▁ztrácí	-10.7906
▁nařídil	-10.7909
▁kombinace	-10.7914
▁odpovídající	-10.7914
▁postupovat	-10.7914
▁demokratů	-10.7918
▁kub	-10.7918
▁osoba	-10.792
▁jar	-10.7921
▁kontrole	-10.7921
▁střechy	-10.7921
lar	-10.7929
▁konkurenci	-10.7929
▁automobilky	-10.793
▁konflikt	-10.793
▁zisku	-10.793
▁zaměstnanec	-10.7934
▁spory	-10.7934
▁kapely	-10.794
▁potenciální	-10.794
▁vedlejší	-10.7942
▁vašich	-10.7942
▁ošetření	-10.7942
▁korupce	-10.7944
ng	-10.7944
▁dávky	-10.7945
(	-10.7947
▁předčasné	-10.795
▁zachránit	-10.7951
▁slib	-10.7953
▁večera	-10.7954
▁udělala	-10.7958
▁ztrátu	-10.7959
▁trzích	-10.7959
▁černá	-10.796
▁plánované	-10.7961
▁gi	-10.7961
▁klíčové	-10.7963
▁určené	-10.7963
▁box	-10.7964
▁dokonale	-10.7965
rád	-10.7966
▁davida	-10.7968
▁bazén	-10.7969
▁plochu	-10.7973
bezmála	-10.7974
▁libor	-10.7975
ley	-10.7975
▁nosí	-10.7979
▁přinést	-10.7982
▁výšce	-10.7984
▁sklad	-10.7985
▁kritizoval	-10.7986
▁hub	-10.7988
vál	-10.7993
▁konzervativní	-10.8001
▁použil	-10.8004
▁zajišťuje	-10.8004
▁spočívá	-10.8004
▁zrušit	-10.8004
▁asistent	-10.8008
▁kostela	-10.8009
▁postaví	-10.8023
▁vyrábět	-10.8027
▁zakázek	-10.8027
▁moskva	-10.8027
▁plnou	-10.8029
▁tvaru	-10.8029
▁můžou	-10.8029
▁sever	-10.8032
▁fc	-10.8035
▁tenkrát	-10.8035
▁věž	-10.804
ící	-10.804
▁statistik	-10.8041
▁vidíte	-10.8042
▁širší	-10.8044
▁poranění	-10.8047
▁stavebního	-10.8052
▁léků	-10.8052
▁orgánů	-10.8058
▁úspěšné	-10.8059
▁vzrostl	-10.8061
▁vteřin	-10.8063
▁jindy	-10.8066
kdo	-10.8068
▁voliči	-10.807
lab	-10.8071
▁objektů	-10.8071
ju	-10.8073
▁polska	-10.8073
▁podepsal	-10.8074
▁kanceláří	-10.8076
▁šestnáct	-10.8078
▁kg	-10.8079
▁závislosti	-10.808
▁stres	-10.808
▁studiu	-10.8086
▁novinář	-10.8089
ač	-10.8089
▁tě	-10.809
▁naučit	-10.8096
▁zachování	-10.8098
▁výstavu	-10.8101
▁tlaku	-10.8114
▁zneužití	-10.8121
▁sestra	-10.8123
▁gal	-10.8123
▁třetího	-10.8124
▁požaduje	-10.8124
▁masivní	-10.8124
▁zbavit	-10.8125
tic	-10.8125
▁nezbytné	-10.8126
▁souhlasí	-10.8128
▁doklady	-10.8131
▁městská	-10.8133
▁bát	-10.8134
▁varianty	-10.8135
▁trefil	-10.8137
▁přicházejí	-10.814
▁sýrie	-10.8142
▁skal	-10.8144
▁dokážou	-10.8146
▁neob	-10.8147
▁předsedkyně	-10.8149
▁působit	-10.8149
▁minutách	-10.8149
▁kos	-10.815
▁prohlídky	-10.815
▁poznat	-10.8151
▁novela	-10.8152
▁zkušební	-10.8152
rna	-10.8155
▁prohlédnout	-10.8157
▁koně	-10.8158
▁komplikace	-10.8164
▁poslat	-10.8164
▁povinné	-10.8168
▁antonín	-10.817
ává	-10.8173
▁zdravé	-10.8177
▁tvrdě	-10.818
▁pocity	-10.8184
▁fyzické	-10.8195
▁vtip	-10.8199
▁sparta	-10.8201
▁měří	-10.8202
▁evropský	-10.8203
▁německých	-10.8204
▁důchod	-10.8207
▁stě	-10.8209
set	-10.8209
▁přijal	-10.8209
▁jednatel	-10.8211
▁územní	-10.8211
▁odpad	-10.8212
▁střely	-10.8213
▁trápí	-10.8214
itou	-10.8216
▁pravomoci	-10.8226
▁nedokázal	-10.8228
▁zdeňka	-10.8228
ld	-10.8236
▁propuštěn	-10.824
▁dálnic	-10.8241
▁těžší	-10.8241
▁změnila	-10.8244
ó	-10.8245
▁systémů	-10.8247
▁investor	-10.8247
▁blízké	-10.8253
šti	-10.8254
▁demokracii	-10.8257
▁připravena	-10.8259
▁způsobu	-10.8259
▁vlaku	-10.8265
▁lize	-10.8266
▁obrazu	-10.8272
▁strážníků	-10.8276
▁kauza	-10.8276
alo	-10.8277
▁ru	-10.8277
▁očí	-10.8278
▁hřišti	-10.828
každý	-10.828
▁dozorčí	-10.828
nk	-10.8283
▁audi	-10.8283
▁politický	-10.8286
▁vypadalo	-10.8287
▁parlamentní	-10.83
zy	-10.8301
▁spisovatel	-10.8302
▁zahynulo	-10.8302
nese	-10.8304
▁ženě	-10.8305
▁namísto	-10.8306
▁nutno	-10.8306
▁domácího	-10.8308
▁úkoly	-10.8308
skými	-10.831
▁volkswagen	-10.8311
▁mír	-10.8315
věd	-10.8321
teď	-10.8324
▁představ	-10.8326
▁pokuta	-10.8327
▁nabízet	-10.8327
▁hašek	-10.8328
▁francouzský	-10.833
▁cukru	-10.833
he	-10.8333
▁dole	-10.8333
▁aliance	-10.8335
▁ránu	-10.8337
▁nechá	-10.834
voj	-10.834
▁kontrola	-10.8341
▁prů	-10.8341
▁záběry	-10.8343
▁republiku	-10.8343
ření	-10.8347
▁odvolal	-10.8348
▁nejsilnější	-10.8351
▁údajné	-10.8352
rod	-10.8357
čák	-10.8358
▁kal	-10.8361
▁církve	-10.8366
▁air	-10.8374
▁agresivní	-10.8376
▁ušetřit	-10.8377
ovské	-10.838
▁realitní	-10.8382
pravděpodobností	-10.8385
▁online	-10.8386
▁zveřejnil	-10.8388
mp	-10.8388
▁hradě	-10.8389
▁horské	-10.8391
▁obchodního	-10.8392
▁demonstrace	-10.8394
▁tábora	-10.8396
▁nábytek	-10.8397
▁skóre	-10.8397
▁anděl	-10.8398
▁průměrný	-10.8399
stu	-10.8399
▁ukázala	-10.8402
rek	-10.8404
jící	-10.8406
▁studií	-10.8406
▁soukromých	-10.8409
▁běžný	-10.841
▁jedině	-10.8411
▁open	-10.8411
▁dluhy	-10.8411
▁čechy	-10.8412
▁běžných	-10.8412
▁krev	-10.8418
▁bojuje	-10.8419
▁stažení	-10.842
▁příkladem	-10.842
▁hodinou	-10.8424
ling	-10.8425
▁boku	-10.8427
▁blok	-10.8429
▁vybudovat	-10.8429
▁olomouc	-10.8429
▁prošel	-10.843
▁otevřel	-10.8435
▁chránit	-10.8437
▁počkat	-10.8437
▁krásný	-10.8439
▁analytik	-10.844
▁oslav	-10.8451
▁vybudování	-10.8451
▁takzvaný	-10.8451
ša	-10.8452
▁kolegů	-10.8453
▁poháru	-10.8455
▁dem	-10.8456
▁klesl	-10.8456
▁celek	-10.8458
▁podvod	-10.8459
▁výborně	-10.8461
▁věd	-10.8464
▁zůstaly	-10.8466
▁karta	-10.8466
▁nepříjemné	-10.8468
▁pověst	-10.8469
▁barevné	-10.847
▁východ	-10.8471
▁státním	-10.8471
▁pokoji	-10.8476
▁způsobit	-10.8478
▁přehrávač	-10.8479
▁pohár	-10.848
▁tour	-10.8484
▁kilometru	-10.8486
▁kluci	-10.8487
▁liberci	-10.8488
▁spoj	-10.8489
▁ministři	-10.8492
▁zad	-10.8495
ine	-10.8497
▁zatčen	-10.8497
▁domácností	-10.8498
▁tahle	-10.8499
▁netradiční	-10.8502
letého	-10.8503
▁předmětů	-10.8503
▁sexu	-10.8504
▁dcery	-10.8506
▁zpravodajství	-10.8509
▁následné	-10.8512
kových	-10.8513
▁vánoce	-10.8514
▁přidat	-10.8514
▁staly	-10.8515
▁nesmírně	-10.8517
▁povolání	-10.8521
▁uvažuje	-10.8523
▁naším	-10.8523
▁stejného	-10.8525
▁reality	-10.8525
▁ochraně	-10.8533
rie	-10.8533
▁neboli	-10.8533
nému	-10.8534
▁vysoko	-10.8536
▁variantu	-10.8536
▁odhad	-10.8537
nova	-10.8537
▁andrej	-10.8541
▁berou	-10.8545
▁partnery	-10.8546
▁bmw	-10.8548
▁stejným	-10.855
uk	-10.855
▁postupem	-10.8553
▁nároky	-10.8554
▁obchodech	-10.8556
▁vzdálenosti	-10.8557
▁připravil	-10.8558
▁poměru	-10.8559
▁spekulace	-10.8559
▁kup	-10.8564
▁zemětřesení	-10.8564
ovic	-10.8565
▁pil	-10.857
▁řádně	-10.857
▁an	-10.8572
ac	-10.8575
▁základny	-10.8575
▁stupni	-10.8577
▁kousky	-10.8581
ks	-10.8583
▁soc	-10.8583
▁klienta	-10.8585
▁mistrů	-10.8586
▁bohaté	-10.859
▁neumí	-10.8591
▁taneční	-10.8591
▁fungují	-10.8593
▁hostů	-10.8593
▁jednodušší	-10.8596
▁zůstanou	-10.8596
tů	-10.8596
▁lodě	-10.8597
ičtí	-10.8598
▁minutu	-10.8603
▁pol	-10.8604
▁fanoušky	-10.8612
▁celková	-10.8613
▁obtížné	-10.8614
lad	-10.8615
ela	-10.8618
▁svojí	-10.862
tin	-10.862
▁uzavírá	-10.8622
bur	-10.8623
▁zaslouží	-10.8627
▁snižuje	-10.8628
▁dlouhodobé	-10.863
slov	-10.8632
▁letoun	-10.8634
▁ekonom	-10.8637
▁vytvoří	-10.8637
▁potřebovat	-10.8638
▁stačilo	-10.8639
▁vlna	-10.8641
eček	-10.8642
▁dosáhl	-10.8643
▁snažím	-10.8647
▁slavné	-10.865
▁slovenska	-10.8652
ft	-10.8655
▁německá	-10.8655
▁jsi	-10.8656
▁rozsáhlé	-10.8656
▁vyšších	-10.8656
▁ryby	-10.8656
▁mapy	-10.8657
▁urban	-10.8658
▁politická	-10.8659
▁bárta	-10.8661
▁univerzitě	-10.8661
ola	-10.8665
ňa	-10.8667
▁potvrzení	-10.8671
▁tržní	-10.8672
▁expertů	-10.8672
▁obsahu	-10.8673
▁hosty	-10.8673
▁kouření	-10.8674
▁původních	-10.8675
sle	-10.8682
tor	-10.8684
▁incidentu	-10.8685
▁šíření	-10.8687
▁stáhnout	-10.8689
▁hrou	-10.8691
▁snaze	-10.8693
▁samotná	-10.8698
▁ústřední	-10.8699
▁autora	-10.8702
▁manžela	-10.8703
▁odmítají	-10.8708
▁půlnoci	-10.8709
▁nejpozději	-10.8709
▁přístrojů	-10.8716
kyně	-10.8718
▁značku	-10.8718
▁formátu	-10.8719
▁totéž	-10.8722
▁manželem	-10.8727
▁bob	-10.8729
▁vybrali	-10.8731
▁bre	-10.8732
▁posádky	-10.8733
▁mr	-10.8736
▁zabil	-10.8738
gb	-10.8739
▁členský	-10.8739
▁írán	-10.874
▁utrpěl	-10.874
▁považován	-10.874
dar	-10.8742
▁potenciál	-10.8743
bel	-10.8745
jo	-10.8746
▁časopisu	-10.8746
▁strojů	-10.8746
▁účel	-10.8747
▁podotkla	-10.8749
▁zůstalo	-10.8751
berg	-10.8752
isté	-10.8752
▁tržby	-10.8758
▁pozemek	-10.8758
▁technických	-10.8761
▁svědky	-10.8762
▁nevíme	-10.8763
▁pádem	-10.8766
▁písně	-10.8766
cová	-10.8767
▁rus	-10.8768
▁určit	-10.8768
jan	-10.8771
▁samotného	-10.8772
▁články	-10.8774
▁komplex	-10.8778
▁pevné	-10.8778
▁skvělý	-10.8778
▁zima	-10.8781
▁okolních	-10.8784
rk	-10.8784
▁doufá	-10.8785
▁odmítli	-10.8786
▁těmito	-10.8787
▁puk	-10.8789
lech	-10.8789
▁podzimní	-10.879
▁rozšířit	-10.879
▁členství	-10.8792
▁paliva	-10.8793
▁ztráta	-10.8794
▁večerní	-10.8796
▁nohou	-10.8799
▁pop	-10.88
▁zraněn	-10.8804
▁nepod	-10.8805
▁snížil	-10.8807
▁obchodních	-10.8808
▁úřední	-10.8814
▁vybraných	-10.8815
▁každodenní	-10.8815
▁podobným	-10.8817
▁premiérem	-10.8819
▁varuje	-10.8821
▁žáků	-10.8822
▁policistům	-10.8823
▁cokoliv	-10.8826
▁starat	-10.8826
▁hrála	-10.8828
▁půdy	-10.8831
▁vzala	-10.8832
▁ústavy	-10.8833
▁průměrné	-10.8835
▁vládou	-10.8839
▁jede	-10.8842
▁zajímavá	-10.8844
▁teplo	-10.8844
hled	-10.8844
fl	-10.885
▁objevuje	-10.8851
▁vrtulník	-10.8851
▁délce	-10.8856
▁navrhuje	-10.8856
▁částech	-10.8864
▁zastupitelů	-10.8868
odpověd	-10.8869
eč	-10.8883
▁pondělní	-10.8886
▁usb	-10.8886
▁investic	-10.8887
▁real	-10.8888
jte	-10.8888
▁déšť	-10.8889
▁výstavby	-10.8889
▁hlasovali	-10.8893
▁marně	-10.8894
▁rychlý	-10.89
▁procento	-10.8903
▁rod	-10.8903
▁tep	-10.8905
ín	-10.8908
▁přijeli	-10.891
▁podílel	-10.8911
▁dospělé	-10.8911
naše	-10.8914
mrz	-10.8917
▁technologii	-10.8922
▁sníží	-10.8923
▁vstoupil	-10.8923
ánek	-10.8925
▁ruská	-10.8926
▁požadavek	-10.893
▁jarní	-10.8931
ovice	-10.8933
▁tisku	-10.8936
▁výnos	-10.8936
ski	-10.8942
▁neviděl	-10.8944
▁okamžik	-10.8945
▁trasa	-10.8945
cen	-10.8947
▁úsměvem	-10.8952
▁lan	-10.8955
▁italské	-10.896
▁mc	-10.8961
▁ostrova	-10.8962
▁zlepšit	-10.8964
▁spotřeba	-10.8964
▁organizátoři	-10.8964
log	-10.8965
▁záležitostí	-10.8968
▁kroku	-10.897
▁dostupných	-10.8974
▁reklamní	-10.8975
▁zažil	-10.8978
▁tel	-10.8978
▁krokem	-10.8978
▁komisi	-10.898
▁desetiletí	-10.8984
▁blesk	-10.8985
▁bot	-10.8985
▁bílý	-10.8986
▁vysokým	-10.8987
▁objekty	-10.8988
▁lidové	-10.8988
▁portál	-10.8988
▁techniku	-10.8991
▁haly	-10.8995
▁zvládnout	-10.8998
▁center	-10.9
▁venkovní	-10.9003
▁parkování	-10.9004
▁ja	-10.9006
▁jmen	-10.9008
che	-10.9008
▁pracovala	-10.9009
▁nejenom	-10.901
▁napadlo	-10.901
▁chlad	-10.9013
▁stabilní	-10.9014
▁paul	-10.9015
ue	-10.902
▁porodu	-10.9021
▁vojenského	-10.9021
▁kvalitě	-10.9023
▁krku	-10.9025
▁karlový	-10.9026
▁minulé	-10.9028
▁národ	-10.903
▁stížnosti	-10.9033
tar	-10.9034
▁zbývá	-10.9035
▁kurzu	-10.9038
▁maximum	-10.9039
▁barvu	-10.9039
▁expert	-10.904
áři	-10.9044
▁soudci	-10.9045
▁dosahuje	-10.9046
▁kop	-10.9047
▁následovat	-10.9047
▁klíč	-10.9049
▁žijící	-10.9051
áž	-10.9051
▁státě	-10.9054
mezi	-10.9054
▁partnerem	-10.9055
▁pohlaví	-10.9056
▁potřebujeme	-10.9064
▁hol	-10.9067
lon	-10.9067
itel	-10.9068
▁manželé	-10.9069
hor	-10.9069
rz	-10.9069
▁proud	-10.907
uč	-10.9071
ění	-10.9076
▁pás	-10.9079
▁studii	-10.9081
▁nehrozí	-10.9083
▁scéně	-10.9084
▁ukrajinské	-10.9086
▁nástupu	-10.9086
▁páteční	-10.9087
nad	-10.9089
▁výzvu	-10.9089
▁nevidí	-10.9095
▁tradici	-10.9095
jedno	-10.9098
▁vcelku	-10.9098
▁čísel	-10.9098
▁mer	-10.9099
▁provádí	-10.9099
▁statistiky	-10.9102
▁znají	-10.9104
▁moderátor	-10.9104
▁historických	-10.9105
▁řídil	-10.9106
▁slovenský	-10.9106
▁cítím	-10.9108
▁zuzana	-10.9109
▁okruh	-10.9115
▁sjezd	-10.9116
out	-10.9123
▁obranu	-10.9123
▁nelegální	-10.9123
py	-10.9124
▁představitelů	-10.9127
▁propad	-10.9135
▁potrvá	-10.9136
▁vnější	-10.9136
▁dra	-10.9137
▁vzdálenost	-10.9137
▁kim	-10.9142
tento	-10.9149
▁sektoru	-10.915
▁trasu	-10.9151
▁mysli	-10.9152
▁dnešního	-10.9153
▁rozvod	-10.9153
▁rakety	-10.9153
▁gross	-10.9154
▁výslechu	-10.9154
▁svatého	-10.9155
▁zdravotních	-10.9156
▁bezpečí	-10.9157
▁dozvěděl	-10.9158
▁verzí	-10.9161
▁držel	-10.9162
▁připravené	-10.9167
▁potřebu	-10.9171
▁fyzicky	-10.9174
▁navštívil	-10.9175
▁jednotka	-10.9178
▁uvedené	-10.9179
▁turnaje	-10.9179
šku	-10.9183
▁pátku	-10.9184
▁trojice	-10.9184
▁úspěšný	-10.9185
▁založení	-10.9186
nce	-10.9187
▁sol	-10.9189
▁soubory	-10.9189
▁motory	-10.919
▁humor	-10.9192
▁aktivit	-10.9194
▁zemřela	-10.9195
▁eura	-10.9196
▁šéfem	-10.9197
lev	-10.9197
▁bílá	-10.9197
▁zlato	-10.92
▁nedělní	-10.9202
istické	-10.9203
▁spuštění	-10.9204
▁vesmíru	-10.9208
▁komunistické	-10.9211
▁podniky	-10.9213
▁uvést	-10.9216
▁očkování	-10.9218
▁spol	-10.9218
níků	-10.9219
▁nedostal	-10.9219
..."	-10.9225
▁zjistí	-10.9225
▁radu	-10.9226
▁výroky	-10.9227
▁procesor	-10.9227
nor	-10.9227
▁kontroverzní	-10.9231
▁technika	-10.9235
vl	-10.9237
▁posílení	-10.9238
▁přibývá	-10.9241
▁kariéře	-10.9242
▁omezit	-10.9242
▁patrné	-10.9242
půjč	-10.9243
▁sídlí	-10.9244
▁očima	-10.9245
▁způsoby	-10.9249
▁vyjít	-10.9253
▁parametry	-10.9257
▁baru	-10.9258
▁plní	-10.9258
▁zapotřebí	-10.9259
▁možných	-10.9263
▁výstup	-10.9263
aný	-10.9263
▁standard	-10.9263
▁dřívější	-10.9264
▁britského	-10.9266
▁vzali	-10.9268
▁zbytky	-10.9268
raz	-10.9269
▁jízda	-10.9269
▁ministrů	-10.9272
▁bin	-10.9272
▁vydává	-10.9272
▁psal	-10.9276
▁mikro	-10.9277
▁spokojený	-10.9281
▁bývalých	-10.9281
▁nehodu	-10.9282
▁autorů	-10.9283
▁texty	-10.9284
▁paradoxně	-10.9284
▁františka	-10.9285
▁rozhoduje	-10.9289
▁cestách	-10.9289
▁vybrané	-10.9292
▁atmosféra	-10.9295
▁stole	-10.9296
▁radikální	-10.9297
▁úrok	-10.9299
▁kapacitu	-10.93
▁hrozilo	-10.9301
fik	-10.9301
gar	-10.9303
▁slevy	-10.9305
▁válku	-10.9307
▁výkony	-10.9307
ena	-10.9313
▁blíže	-10.9314
▁mezinárodních	-10.9315
▁okolnosti	-10.9318
▁nesmysl	-10.9325
▁linka	-10.9325
▁propojení	-10.9325
kládají	-10.9328
▁hradec	-10.9328
▁myslet	-10.9328
▁prvků	-10.9328
▁osobností	-10.9329
▁nechtěli	-10.933
▁kle	-10.9331
zl	-10.9332
▁páté	-10.9339
▁tuhle	-10.9345
▁pevně	-10.9345
▁zahradní	-10.9346
▁smrtí	-10.9347
gr	-10.9347
iz	-10.9349
▁zlaté	-10.935
▁dělali	-10.935
▁délka	-10.935
čit	-10.9351
▁základem	-10.9351
▁konečné	-10.9354
▁proudu	-10.9356
▁sociálního	-10.9358
▁vrcholu	-10.9359
▁host	-10.9361
▁berdych	-10.9363
▁dovnitř	-10.9364
▁titulů	-10.9365
▁zvyklí	-10.9366
▁opak	-10.9367
▁slavnostní	-10.9368
ance	-10.9369
▁setkal	-10.937
▁spadl	-10.937
▁odborník	-10.937
▁přínos	-10.9371
▁přirozeně	-10.9372
nyní	-10.9373
▁nemůžete	-10.9374
▁sbor	-10.9377
▁oběd	-10.9377
vaz	-10.9378
▁zápasech	-10.9379
▁oprava	-10.9379
ární	-10.9385
▁společenství	-10.939
▁mým	-10.9391
▁autobusu	-10.9393
▁nadace	-10.9398
▁bezpečné	-10.94
age	-10.9403
▁silná	-10.9403
▁bas	-10.9404
čas	-10.9405
tl	-10.9405
gy	-10.9409
til	-10.9412
▁poptávka	-10.9415
▁díly	-10.9419
▁loňské	-10.9421
▁pražská	-10.9424
▁pití	-10.9425
▁ekonomika	-10.9435
▁předchozím	-10.9437
nový	-10.9437
▁likvidaci	-10.9441
gh	-10.9443
hodil	-10.9443
fin	-10.9444
▁tráví	-10.9445
▁povinností	-10.9445
▁nechceme	-10.9445
▁uznal	-10.9447
▁obrázky	-10.945
ňovat	-10.9454
▁plocha	-10.9454
▁předchůdce	-10.9458
▁kariéry	-10.9458
nický	-10.9459
▁posun	-10.9459
álně	-10.9462
▁drogy	-10.9468
▁chrání	-10.9468
▁přítel	-10.9471
▁přechodu	-10.9471
čil	-10.9472
▁nedávné	-10.9472
▁ham	-10.9472
šen	-10.9473
▁výhru	-10.9473
▁dohodli	-10.9475
▁štěpán	-10.9476
▁učit	-10.9477
ev	-10.9481
▁protesty	-10.9481
▁úrovně	-10.9485
▁poznamenala	-10.9485
▁iphone	-10.9487
▁dana	-10.9488
▁zápis	-10.9491
▁tlakem	-10.9491
dová	-10.9492
▁žádat	-10.9493
▁dopadne	-10.9494
▁turecko	-10.9496
▁ber	-10.9497
▁chovat	-10.9498
▁lid	-10.9502
▁zpěvačka	-10.9502
▁sítích	-10.9504
▁čtvrteční	-10.9506
▁civilní	-10.9513
▁dalšímu	-10.9516
▁výborný	-10.9517
▁pojistné	-10.9518
▁hovořit	-10.952
▁nejdražší	-10.952
▁talent	-10.9522
▁zaplatil	-10.9525
▁prodal	-10.9528
▁jednoduchá	-10.9529
▁odvolací	-10.9529
▁bud	-10.9532
▁turnaj	-10.9533
▁world	-10.9535
▁počítačů	-10.9535
kor	-10.9538
▁nos	-10.9541
▁deska	-10.9545
nos	-10.9546
▁vězňů	-10.9546
▁speciálně	-10.9549
▁lehké	-10.9553
▁trval	-10.9555
mín	-10.9556
▁havla	-10.9558
▁zdravotním	-10.9562
▁kdybychom	-10.9564
▁kapela	-10.9565
▁dělo	-10.9566
▁tisíci	-10.9571
▁kot	-10.9572
▁kldr	-10.9573
erová	-10.9574
▁vypadají	-10.9576
izaci	-10.9576
ovaným	-10.9576
▁demokratické	-10.9578
▁rozdělení	-10.9579
vzhledem	-10.958
▁představitel	-10.9585
▁forma	-10.9589
ající	-10.9589
▁západu	-10.959
▁správu	-10.9591
▁závodů	-10.9592
▁sněhové	-10.9595
▁předmětem	-10.9596
áč	-10.9597
▁skla	-10.9597
▁srdeční	-10.96
▁věřit	-10.96
▁ploše	-10.9601
▁odpovědnosti	-10.9602
▁zákazu	-10.9603
▁pardubice	-10.9607
▁viděla	-10.9608
▁čtrnácti	-10.9608
▁sboru	-10.9609
▁zastoupení	-10.9609
oš	-10.9612
▁pomohla	-10.9614
▁zopakoval	-10.9614
▁uzavřít	-10.9617
cp	-10.9619
▁intel	-10.9621
aná	-10.9622
▁reportér	-10.9625
▁napadl	-10.9626
▁kuchař	-10.963
lig	-10.963
ation	-10.9632
▁diváky	-10.9634
▁devadesátých	-10.9637
▁ford	-10.9638
tky	-10.9638
▁trenéra	-10.9639
▁úvěrů	-10.9643
▁angeles	-10.9644
▁sále	-10.9645
▁alexandr	-10.9649
▁osobnost	-10.965
▁ameriky	-10.9653
▁prodávají	-10.9653
▁galaxy	-10.9662
▁poradit	-10.9663
mont	-10.9666
elný	-10.9669
▁možný	-10.9676
▁rostliny	-10.9678
▁kontrolovat	-10.9679
▁životem	-10.968
▁hodnot	-10.9681
▁automobilka	-10.9683
▁říkali	-10.9684
ecké	-10.9687
▁pracoviště	-10.9688
dle	-10.9689
lka	-10.9691
▁profil	-10.9692
▁střetu	-10.9692
samozřejmě	-10.9694
▁vrátili	-10.9695
lis	-10.9696
▁známo	-10.9697
rc	-10.9697
▁připravili	-10.9706
▁zjevně	-10.9707
▁vybaven	-10.9709
▁národním	-10.971
▁zvíře	-10.9711
▁bazénu	-10.9712
▁rudolf	-10.9714
▁sídlo	-10.9715
áře	-10.9716
▁jindřich	-10.972
▁novinářů	-10.9724
▁prezidentovi	-10.9728
▁facebook	-10.9728
▁podala	-10.973
▁lidovců	-10.9734
▁zvýšila	-10.9735
▁zdravotnické	-10.9741
▁přinejmenším	-10.9742
▁sokol	-10.9744
vše	-10.9745
▁předloni	-10.9746
▁úvodu	-10.9747
▁washingtonu	-10.9747
▁uzavřené	-10.9748
we	-10.9751
▁hospodářství	-10.9751
▁potřebujete	-10.9751
▁ženám	-10.9754
▁bance	-10.9756
▁složky	-10.9756
▁uzavřela	-10.9757
hat	-10.9759
▁ptá	-10.9761
▁rozhraní	-10.9769
ota	-10.977
▁nechává	-10.9771
▁láska	-10.9771
▁určitý	-10.9771
▁zneužívání	-10.9773
▁balení	-10.9773
▁zítra	-10.9778
▁pracovního	-10.9779
rin	-10.9779
▁podstatné	-10.9782
▁fr	-10.9783
▁přidává	-10.9787
eň	-10.9788
▁upozorňují	-10.9788
▁zaznamenali	-10.9788
nebo	-10.9789
▁surovin	-10.9791
▁rozhodlo	-10.9791
pořád	-10.9792
▁odborníky	-10.9795
▁čtvrtý	-10.9796
▁středisko	-10.9796
kání	-10.9797
▁němec	-10.98
▁věže	-10.9801
nějším	-10.9801
▁raket	-10.9802
▁eurozóny	-10.9805
▁korupci	-10.9805
ickým	-10.9809
▁vzájemné	-10.9809
▁index	-10.981
▁koupí	-10.9811
▁současnou	-10.9814
jížděl	-10.9815
▁hi	-10.9815
▁lyžování	-10.9816
▁zuby	-10.9816
▁podpořil	-10.9819
▁speciálních	-10.9821
▁politického	-10.9823
▁síla	-10.9823
▁důležitou	-10.9824
▁sotva	-10.9824
▁napříč	-10.9824
▁informovat	-10.9824
letí	-10.9832
▁obvyklé	-10.9833
nie	-10.9833
▁složitější	-10.9834
▁platby	-10.9834
enci	-10.9834
▁zachovat	-10.9835
▁meteorologové	-10.9835
▁dav	-10.9841
▁nákupní	-10.9843
▁šaty	-10.9843
▁armádní	-10.9845
▁personál	-10.9846
ml	-10.9847
▁šampionátu	-10.9847
kne	-10.985
▁osobního	-10.985
▁mistr	-10.9851
▁rodičům	-10.9852
▁telekomunikační	-10.9852
▁známky	-10.9853
▁matěj	-10.9857
▁vyrazil	-10.9857
▁nástroje	-10.9858
▁automobilu	-10.9863
▁okraji	-10.9864
▁výcvik	-10.9865
▁prochází	-10.9869
▁popřel	-10.987
ži	-10.987
▁polské	-10.9871
▁jitka	-10.9871
▁rodinných	-10.9872
ves	-10.9874
cem	-10.9878
▁extrémně	-10.9878
▁mark	-10.9879
▁dluhu	-10.9882
mír	-10.9883
▁odbory	-10.9886
▁plná	-10.9887
▁islám	-10.9891
▁uvedlo	-10.9897
▁audio	-10.9897
▁operátor	-10.9899
▁dnešním	-10.9901
▁kul	-10.9901
slu	-10.9901
▁výjimečný	-10.9903
▁selhání	-10.9906
▁novinkám	-10.9906
▁testování	-10.9906
▁člověku	-10.9914
▁plot	-10.9914
▁splnit	-10.9915
▁desku	-10.9916
▁vyhráli	-10.9916
počítá	-10.992
▁oběť	-10.992
ňují	-10.9921
ica	-10.9921
stein	-10.9921
žil	-10.9925
▁nutně	-10.9925
▁počtem	-10.9926
▁pustil	-10.9926
▁ústavního	-10.9929
▁brzd	-10.9929
▁gólman	-10.993
▁výkonný	-10.993
dro	-10.9932
▁vesnici	-10.9933
jeden	-10.9934
▁lázní	-10.994
▁podívejte	-10.9941
▁generaci	-10.9942
▁fotky	-10.9942
▁slavný	-10.9944
▁bra	-10.9944
▁návrhem	-10.9948
▁návštěva	-10.9951
▁dagmar	-10.9951
▁nedokáže	-10.9953
▁metody	-10.9955
ast	-10.9956
▁pracovali	-10.9956
▁humanitární	-10.996
aly	-10.9962
▁zamítl	-10.9962
▁platnost	-10.9964
▁necháme	-10.9965
▁resortu	-10.9966
▁připojit	-10.997
▁větru	-10.997
čan	-10.9973
▁jágr	-10.9973
▁kabel	-10.9975
dou	-10.9976
▁elektro	-10.9977
▁nebudete	-10.9977
mas	-10.9979
▁dveřmi	-10.9979
▁des	-10.9983
▁říkala	-10.9984
▁krajů	-10.9985
▁ovzduší	-10.9988
ula	-10.999
▁muzeu	-10.999
▁reklamy	-10.9996
▁obličeje	-10.9998
▁obrazy	-10.9998
▁vejce	-11
▁studio	-11.0003
▁lg	-11.0004
▁služební	-11.0005
ovku	-11.0006
▁spánku	-11.0007
▁bezprostředně	-11.0007
nku	-11.0008
▁správě	-11.001
▁šok	-11.001
vých	-11.0015
▁hrob	-11.0017
▁tenis	-11.0024
▁pravý	-11.0032
▁zadržení	-11.0034
▁chystají	-11.0034
▁historik	-11.0037
▁řez	-11.0039
▁silniční	-11.0041
▁ledě	-11.0042
▁registr	-11.0042
▁přesvědčení	-11.0042
▁kat	-11.0042
▁zvon	-11.0043
▁revoluce	-11.0044
▁operací	-11.0045
▁státem	-11.0045
▁zájmů	-11.0046
pra	-11.005
▁půdě	-11.0053
tro	-11.0054
▁nečase	-11.0064
▁účelem	-11.0064
▁jíst	-11.0065
▁moji	-11.0066
▁čekali	-11.0066
▁utekl	-11.0067
stran	-11.0067
▁bojů	-11.0068
▁miloše	-11.007
▁postavili	-11.007
▁žili	-11.0071
▁navzájem	-11.0072
▁majitelů	-11.0077
▁protest	-11.0079
▁dosáhla	-11.0081
▁obrázek	-11.0081
▁vyměnit	-11.0081
▁neznámý	-11.0082
kan	-11.0084
cher	-11.0086
ada	-11.0088
▁existenci	-11.009
▁zadání	-11.0092
▁osmdesát	-11.0092
▁příjezdu	-11.0092
▁celých	-11.0097
▁osobním	-11.0099
▁vzkázal	-11.0099
▁emoce	-11.0099
▁minimum	-11.01
▁daily	-11.01
▁krádeže	-11.0103
▁platů	-11.0105
▁přečíst	-11.011
▁čtenář	-11.0111
▁schůzce	-11.0118
▁schůzky	-11.0118
▁dopravě	-11.0118
▁posádka	-11.0119
rý	-11.0121
▁připravují	-11.0123
▁chová	-11.0127
▁pošty	-11.0128
▁příjemně	-11.013
lín	-11.0139
▁dorazil	-11.014
▁opakovat	-11.0141
▁důkladně	-11.0142
▁polsko	-11.0142
kryt	-11.0143
▁zvýšené	-11.0145
▁oleje	-11.0148
un	-11.0151
▁mléka	-11.0151
pět	-11.0152
▁jakoby	-11.0154
▁chat	-11.0155
▁absolutně	-11.0155
▁příznivci	-11.0156
▁myšlenky	-11.0156
tři	-11.0158
▁překlad	-11.0161
▁soused	-11.0165
▁fotografii	-11.0166
▁vydali	-11.0167
koliv	-11.0168
▁kontakty	-11.0168
▁designu	-11.017
▁zahrada	-11.0171
▁nemocí	-11.0171
▁přál	-11.0172
▁babiše	-11.0174
▁stránku	-11.0176
▁kandidáta	-11.0176
▁sloup	-11.0177
▁archiv	-11.0184
nictví	-11.0186
dek	-11.0187
▁potřeboval	-11.0188
▁nemyslím	-11.0188
▁knihovny	-11.0193
▁významně	-11.0194
▁věcech	-11.0195
▁tváře	-11.0195
▁podílet	-11.0196
▁ši	-11.0198
▁kód	-11.0199
▁nástupce	-11.0201
▁konstatuje	-11.0202
▁referendum	-11.0203
▁lásky	-11.0204
▁žádal	-11.0205
▁trestných	-11.0206
▁grand	-11.0206
▁rodinného	-11.021
sch	-11.0212
▁strategii	-11.0212
▁firemní	-11.0215
▁závěrečné	-11.0217
▁tlačítko	-11.0218
ij	-11.0218
▁rozlišením	-11.022
▁čistý	-11.022
▁nedaleké	-11.022
▁běh	-11.0221
▁účinky	-11.0221
gener	-11.0222
▁webové	-11.0222
▁uvedení	-11.0223
▁nájem	-11.0225
▁lesů	-11.0225
▁kritiku	-11.0226
klid	-11.0226
▁nepřátel	-11.0229
bro	-11.023
▁čnb	-11.0231
▁fáze	-11.0231
▁vstupní	-11.0233
▁případný	-11.0235
▁úprava	-11.0238
▁střechu	-11.0238
▁rusové	-11.0239
ser	-11.024
▁bydliště	-11.024
▁odvětví	-11.024
▁download	-11.024
▁stoupá	-11.0241
▁vznikly	-11.0242
▁řadí	-11.0243
▁změnou	-11.0243
▁metod	-11.0245
▁úředníků	-11.0245
▁zveřejnění	-11.0246
▁kusy	-11.0247
▁dětských	-11.0249
▁považovat	-11.025
▁podotýká	-11.025
▁sbírky	-11.025
▁rakousko	-11.025
▁něčím	-11.0252
▁necelé	-11.0253
▁pořádá	-11.0254
▁závěry	-11.0257
▁láká	-11.0258
ivé	-11.0259
▁očekávají	-11.0259
▁psů	-11.026
▁tajemství	-11.0261
▁typů	-11.0261
ist	-11.0264
ep	-11.0268
▁čtyřiceti	-11.027
▁známe	-11.0272
šlo	-11.0275
▁kopce	-11.0277
▁ochrana	-11.0278
▁kout	-11.0282
▁kluk	-11.0283
šit	-11.0285
▁vrah	-11.0286
▁podporují	-11.0287
lie	-11.0288
▁hluboké	-11.0288
kra	-11.0291
▁obnovu	-11.0291
▁pokusí	-11.0291
▁zločinu	-11.0292
▁gra	-11.0292
něm	-11.0292
dem	-11.0297
zdrav	-11.0297
▁obsahují	-11.0298
▁dopustil	-11.0299
ds	-11.0304
▁definitivní	-11.0307
▁důsledky	-11.0307
▁svědectví	-11.0307
▁kampani	-11.0307
▁vysočině	-11.0307
▁zájemců	-11.0307
▁ženou	-11.0308
▁sestry	-11.0309
▁pivovar	-11.0314
▁veselý	-11.0317
▁tvrdé	-11.0318
▁zlíně	-11.0319
▁jedenácti	-11.0319
▁výdajů	-11.0324
ovská	-11.0327
ávání	-11.0331
▁prohrál	-11.0332
▁novými	-11.0333
▁dia	-11.0334
▁umělé	-11.0335
lové	-11.0338
▁paláce	-11.0339
▁ukončil	-11.034
▁pracovník	-11.0341
▁vojenských	-11.0343
brat	-11.0345
▁gar	-11.0347
▁reálné	-11.0347
sel	-11.0349
▁každým	-11.0353
▁uvědomit	-11.0354
elná	-11.0355
▁rakouska	-11.0355
▁pracovníky	-11.0356
▁zdálo	-11.0356
▁spojuje	-11.0359
▁úspory	-11.036
▁interní	-11.036
▁překonal	-11.0367
▁jejímu	-11.0367
▁pav	-11.037
▁vzájemně	-11.0374
▁řadou	-11.0376
▁vracet	-11.0377
ávat	-11.0377
▁společenské	-11.0377
▁přátelé	-11.0378
▁kauzu	-11.0378
▁pěší	-11.0379
▁lese	-11.038
▁vyloučit	-11.0383
▁poštovní	-11.0384
▁michala	-11.0387
▁del	-11.0388
▁resort	-11.0392
▁táboře	-11.0393
▁dokázala	-11.0396
▁číst	-11.0396
▁odborů	-11.0397
loni	-11.0397
▁podpoří	-11.0403
▁duchovní	-11.0403
▁podnikatelů	-11.0403
tím	-11.0404
▁sjezdu	-11.041
▁zkuste	-11.0412
▁kámen	-11.0412
▁jednomu	-11.0414
▁osmé	-11.0414
kot	-11.0414
▁nástup	-11.0416
ier	-11.0417
▁novější	-11.0419
▁kandidátky	-11.0421
▁duelu	-11.0425
▁rodiči	-11.0427
kově	-11.0428
▁byznys	-11.0429
▁roh	-11.043
▁výzvy	-11.0431
▁očích	-11.0431
▁ač	-11.0432
▁mont	-11.0432
stát	-11.0433
▁dílů	-11.0436
▁skupinou	-11.0437
▁místním	-11.0438
psali	-11.0441
▁klesla	-11.0442
▁medi	-11.0442
▁lubomír	-11.0443
▁summitu	-11.0444
▁prach	-11.0448
▁záchranářů	-11.0449
▁terorismu	-11.045
▁zaznamenal	-11.045
zel	-11.0453
jedou	-11.0454
▁lokalitě	-11.0454
▁dělám	-11.0458
▁lék	-11.0458
▁moskvě	-11.046
▁otázce	-11.046
▁nejedná	-11.0461
▁dílem	-11.0461
▁prodejce	-11.0462
▁vyrovnat	-11.0463
nech	-11.0465
▁hdp	-11.0465
▁dočasně	-11.047
▁zastupitelstvu	-11.047
straš	-11.047
▁teplé	-11.0471
lem	-11.0472
▁časopis	-11.0476
▁nemění	-11.0476
▁liberce	-11.0477
▁volbě	-11.048
▁šancí	-11.0481
▁stranách	-11.0482
▁ekonomiku	-11.0487
▁nábytku	-11.0489
▁dobrovolně	-11.0489
prac	-11.049
▁váží	-11.0493
ham	-11.0493
▁koš	-11.0494
potřeb	-11.0494
▁operátorů	-11.0495
▁padl	-11.0496
▁sen	-11.0497
▁americkou	-11.0497
▁těžká	-11.0499
▁souboj	-11.0501
▁zdravý	-11.0501
▁proběhne	-11.0503
▁počty	-11.0506
▁budování	-11.0506
▁bonus	-11.0507
▁klasický	-11.0508
▁diplomacie	-11.0509
▁literární	-11.0509
▁bluetooth	-11.0509
▁kra	-11.0509
▁porazil	-11.0509
▁penzijní	-11.0509
▁institutu	-11.0511
vrácen	-11.0513
▁novému	-11.0513
▁osmnáct	-11.0514
lil	-11.0518
▁zadarmo	-11.0518
▁nadšení	-11.052
▁zaměstnavatele	-11.052
▁hrdina	-11.052
▁zpoždění	-11.0524
▁mobilu	-11.0528
▁vaření	-11.053
▁tvořit	-11.0533
▁ujistil	-11.0534
▁extrémní	-11.0536
▁praktické	-11.0538
▁stavebních	-11.0541
▁sál	-11.0544
▁územního	-11.0545
▁časy	-11.0545
▁psy	-11.0547
▁tragédie	-11.0548
▁íránu	-11.055
▁schválila	-11.0552
▁dějin	-11.0553
vky	-11.0553
▁souboru	-11.0554
▁typické	-11.0557
▁nejmladší	-11.0557
▁nahrávky	-11.0557
▁respekt	-11.0557
▁opravit	-11.0557
▁okno	-11.0559
▁záhy	-11.0561
rg	-11.0562
▁hradce	-11.0562
▁radka	-11.0563
▁světovou	-11.0564
▁úpravu	-11.0564
▁rozsah	-11.0565
▁původním	-11.0566
▁posudek	-11.0567
▁administrativní	-11.0567
▁zadrželi	-11.0567
▁mínění	-11.0568
něji	-11.0568
▁region	-11.057
▁připsal	-11.0572
býval	-11.0573
▁úst	-11.0574
▁evropu	-11.0577
▁lázně	-11.0577
izovat	-11.0577
▁určen	-11.0579
chyt	-11.0581
▁pri	-11.0581
▁tříd	-11.0582
▁nejbližších	-11.0583
▁mrzí	-11.0585
▁schopna	-11.0587
▁karl	-11.0592
▁vedlo	-11.0594
fo	-11.0594
▁činností	-11.0596
▁há	-11.0598
▁tituly	-11.0598
stává	-11.0599
▁následuje	-11.0599
▁novo	-11.0606
▁zajímavou	-11.0606
▁reprezentace	-11.0606
aj	-11.0606
iku	-11.0607
▁důkazů	-11.0608
▁spolupracuje	-11.0608
hlav	-11.0608
▁patře	-11.061
▁tréninku	-11.061
▁odměnu	-11.0614
▁autorem	-11.0617
▁htc	-11.0618
▁důležitější	-11.0626
▁nečekaně	-11.0626
▁vyrobit	-11.0626
▁věznici	-11.0626
▁zmizel	-11.0628
isty	-11.0631
▁nález	-11.0633
▁obdržel	-11.0634
hání	-11.0635
▁poškozené	-11.064
stře	-11.064
red	-11.0648
▁nacházejí	-11.0648
▁holub	-11.0649
▁filmové	-11.0649
▁problémům	-11.0649
▁hmot	-11.0651
▁černo	-11.0654
▁medaili	-11.0657
počet	-11.0657
▁klientům	-11.0659
▁místnost	-11.0662
▁zraněných	-11.0663
▁obnovit	-11.0665
▁vstupné	-11.0665
▁vyšetřuje	-11.0665
▁oheň	-11.0665
▁zvítězil	-11.0669
▁nebe	-11.067
▁analýzy	-11.0672
▁tvorbu	-11.0675
▁alternativní	-11.0675
▁hladina	-11.0678
▁některý	-11.0679
idnes	-11.0682
dom	-11.0684
▁označuje	-11.0685
▁soupeři	-11.0685
▁nezbývá	-11.0686
proč	-11.0686
▁svobodě	-11.0689
▁premiéru	-11.069
▁prima	-11.069
▁jakém	-11.0691
▁slaví	-11.0691
▁malíř	-11.0694
▁bezpečně	-11.0694
▁majiteli	-11.0695
▁recept	-11.0695
▁viktor	-11.0695
▁šestnácti	-11.0696
▁nejčastější	-11.0697
▁štít	-11.0698
▁kaš	-11.07
▁vysokého	-11.0703
▁celostátní	-11.0705
▁mah	-11.0705
▁mém	-11.0706
end	-11.0708
▁zakladatel	-11.0708
▁štábu	-11.0708
▁vysvětloval	-11.0708
▁hrách	-11.0709
▁vyrazit	-11.071
▁zdravotního	-11.0712
▁vytvořili	-11.0712
▁špatná	-11.0715
▁zkusit	-11.0715
myšlen	-11.0715
tt	-11.0717
▁prokázat	-11.0721
▁had	-11.0721
▁čili	-11.0722
▁nízká	-11.0725
▁kapacity	-11.0725
ris	-11.0726
car	-11.0729
mr	-11.073
▁gsm	-11.073
▁přispět	-11.0735
▁porušování	-11.0735
▁ostravské	-11.0736
▁málokdo	-11.0736
▁radim	-11.0739
▁dědictví	-11.0745
▁nahradí	-11.0745
▁hlídka	-11.0745
▁existence	-11.0747
▁silnou	-11.075
▁metry	-11.0754
▁příslušné	-11.0761
▁nejrůznějších	-11.0761
čte	-11.0765
klo	-11.0765
▁dostatečné	-11.0765
▁vystoupil	-11.0769
▁ger	-11.0771
▁dobrého	-11.0774
▁obrovská	-11.0775
▁pohodě	-11.0775
▁hektarů	-11.0777
rom	-11.0779
▁jmenování	-11.0781
▁krajská	-11.0783
▁moskvy	-11.0784
▁lesy	-11.0785
▁malým	-11.0785
jet	-11.0786
ole	-11.0786
▁tématu	-11.0786
stř	-11.0794
▁obrovskou	-11.0794
▁školky	-11.0797
▁samozřejmostí	-11.0797
▁přiznala	-11.0798
▁kameny	-11.0799
během	-11.0801
▁dis	-11.0803
▁příspěvky	-11.0804
▁spořitelny	-11.0804
▁sídliště	-11.0804
▁výjimky	-11.0804
▁freeware	-11.0804
▁britská	-11.0807
rak	-11.0808
▁bon	-11.0809
▁dílu	-11.0811
kům	-11.0812
▁kilometry	-11.0813
▁činy	-11.0814
▁uplatnění	-11.0816
nějších	-11.0816
střed	-11.082
jme	-11.0821
▁památek	-11.0824
▁tabulky	-11.0824
▁kamarády	-11.0824
▁napadení	-11.0824
▁panel	-11.0827
▁podnikatelé	-11.0828
▁vítěze	-11.0828
šet	-11.083
▁variant	-11.0832
▁týmů	-11.0832
pustí	-11.0833
▁světový	-11.0833
▁pouhé	-11.0834
▁komplexní	-11.0835
▁účely	-11.0836
▁herci	-11.0836
▁letních	-11.0842
▁kritiky	-11.0842
▁příkaz	-11.0844
▁obrátit	-11.0844
▁přečtěte	-11.0847
sed	-11.0847
▁sedmdesát	-11.0848
▁dobrým	-11.0849
▁prosadil	-11.085
▁komín	-11.0856
▁lokality	-11.0856
▁obličej	-11.0859
▁ředitelem	-11.0859
▁domem	-11.0861
▁připouští	-11.0862
stal	-11.0864
▁hájí	-11.0864
▁uložil	-11.0864
▁hezky	-11.0865
▁žádají	-11.0865
▁logicky	-11.0868
▁plno	-11.0871
▁hovor	-11.0872
▁jmenoval	-11.0874
▁schůzku	-11.0875
▁názvu	-11.0875
▁odehrává	-11.0875
▁zvolení	-11.0877
▁vojtěch	-11.0879
▁znalosti	-11.088
lám	-11.088
▁dopravce	-11.0885
▁projevuje	-11.0885
▁ps	-11.0886
tes	-11.0886
▁přepadení	-11.0889
▁hora	-11.0891
▁srážky	-11.0892
▁rozhodnutím	-11.0893
▁domovní	-11.0893
▁tablet	-11.0894
▁galerii	-11.0895
▁vydá	-11.0896
▁tresty	-11.0897
skému	-11.0899
▁léčba	-11.09
▁oko	-11.0902
▁kb	-11.0902
▁přízemí	-11.0905
▁konstrukci	-11.0905
čím	-11.0905
▁neřeší	-11.0907
▁turné	-11.0909
oni	-11.0913
▁cnn	-11.0916
▁bou	-11.0921
▁českými	-11.0922
dění	-11.0922
dit	-11.0923
▁vol	-11.0924
▁mlýn	-11.0925
▁tra	-11.0928
▁para	-11.0931
▁veřejnou	-11.0935
práv	-11.0939
▁zajímat	-11.0944
▁operačního	-11.0945
▁legislativní	-11.0945
vu	-11.0946
▁stačit	-11.0946
▁svěřil	-11.0947
rová	-11.0947
▁kriminální	-11.0947
▁třetině	-11.0948
rot	-11.0948
▁otevře	-11.0948
vce	-11.0949
▁sud	-11.0949
▁policejních	-11.095
▁markéta	-11.0951
gl	-11.0956
▁voliče	-11.0957
▁turistické	-11.0958
▁celkového	-11.0959
▁dohled	-11.096
▁citovala	-11.096
▁ericsson	-11.0961
onu	-11.0963
▁neřekl	-11.0964
▁anketa	-11.0965
▁černého	-11.0965
▁válečné	-11.0966
▁autobusů	-11.0966
▁nezaměstnanosti	-11.0967
▁nemusel	-11.0967
▁krvi	-11.0968
▁rodinný	-11.0969
▁dopady	-11.0969
eno	-11.097
▁stud	-11.0971
▁konstatovala	-11.0975
▁psycholog	-11.098
▁volí	-11.0981
▁prostorách	-11.0984
boh	-11.0985
▁světová	-11.0987
▁trénink	-11.0992
▁španěl	-11.0993
▁zimu	-11.0995
▁matku	-11.0996
▁šíří	-11.0996
▁prázdné	-11.0998
vel	-11.1
lid	-11.1
▁vlasti	-11.1
▁tématem	-11.1002
▁listy	-11.1005
▁čtvrtfinále	-11.1006
▁vhodný	-11.1008
▁základním	-11.101
▁uspořádání	-11.101
▁novináře	-11.1011
▁automobily	-11.1012
▁dorazí	-11.1013
▁zkušený	-11.1017
hlíží	-11.1018
ačka	-11.1018
▁střet	-11.1018
▁mála	-11.1018
▁samostatné	-11.1019
▁pomáhal	-11.1019
▁zločin	-11.102
▁zátěž	-11.1021
▁určena	-11.1024
kdyby	-11.1025
ken	-11.1026
▁televizních	-11.1026
▁zvyšování	-11.1027
áky	-11.1029
▁ostré	-11.103
wan	-11.103
laj	-11.103
▁daňových	-11.1031
▁příčin	-11.1034
▁mládež	-11.1034
ingu	-11.1035
žije	-11.1036
▁externí	-11.1036
▁ekonomický	-11.1037
cu	-11.1038
▁helena	-11.1038
▁pochyb	-11.1043
▁procenty	-11.1044
▁dívku	-11.1047
▁testů	-11.1048
▁instalace	-11.105
kův	-11.1052
▁krém	-11.1055
▁stáří	-11.1058
▁zdát	-11.1062
▁velko	-11.1065
▁změnilo	-11.1066
▁jediného	-11.1068
▁odvoláním	-11.1068
▁dárky	-11.1069
▁lidech	-11.1073
▁soutěží	-11.1074
▁teroristické	-11.1075
▁vrstva	-11.1075
lení	-11.1076
▁směje	-11.1077
▁disponuje	-11.1078
▁maz	-11.1078
▁brod	-11.108
▁novely	-11.1081
bli	-11.1081
▁dočkal	-11.1082
ste	-11.109
▁potíží	-11.1092
▁div	-11.1093
▁dodržování	-11.1093
▁společný	-11.1094
▁intenzivně	-11.1099
▁shodují	-11.1099
soud	-11.1101
padne	-11.1102
▁lidu	-11.1103
▁přáteli	-11.1103
hel	-11.1104
▁pustit	-11.1105
▁hej	-11.1106
▁dlouhých	-11.1107
▁příznivců	-11.1109
▁hezké	-11.1109
▁výhodné	-11.1111
hi	-11.1111
▁centrem	-11.1112
▁přístav	-11.1119
▁dotázaných	-11.1119
▁rozmezí	-11.1119
▁zastupitelstvo	-11.112
▁gr	-11.112
▁klávesnice	-11.112
▁operátora	-11.1121
▁převod	-11.1121
fe	-11.1121
tato	-11.1125
▁pokusy	-11.1127
▁usd	-11.1128
▁litr	-11.1128
▁zlom	-11.113
▁zpravodaj	-11.113
▁výhře	-11.1131
▁hy	-11.1131
▁komunistů	-11.1131
▁ruskem	-11.1132
▁tunelu	-11.1132
▁dnem	-11.1132
▁krásně	-11.1133
▁čerstvé	-11.1133
▁předpisy	-11.1139
▁rohu	-11.1139
▁otázek	-11.114
▁dívat	-11.114
▁zub	-11.1141
ré	-11.1141
▁připravený	-11.1142
▁pohlavní	-11.1144
▁spotřebu	-11.1147
▁líto	-11.1149
▁international	-11.115
▁předpokládat	-11.115
▁běhu	-11.1152
iva	-11.1157
▁slušné	-11.1158
tla	-11.116
vek	-11.116
▁vytvářet	-11.1161
▁zdůrazňuje	-11.1161
▁or	-11.1161
▁indie	-11.1162
▁plnit	-11.1162
▁pet	-11.1162
▁jara	-11.1163
don	-11.1164
▁nestojí	-11.1166
▁výraz	-11.1166
▁životy	-11.1167
▁terčem	-11.1168
díky	-11.1168
jev	-11.1171
▁soustředit	-11.1171
▁duševní	-11.1171
▁dětský	-11.1172
▁volbu	-11.1172
▁news	-11.1174
▁one	-11.1176
▁předal	-11.1179
▁hale	-11.118
▁léčby	-11.1182
▁široký	-11.1182
▁útvaru	-11.1183
▁štáb	-11.1185
foto	-11.1186
▁přítomnosti	-11.1187
▁levné	-11.1187
▁alba	-11.1188
▁placení	-11.1189
▁předsedu	-11.1192
▁vylepšení	-11.1192
▁nakladatelství	-11.1194
▁disku	-11.1197
lt	-11.1198
▁obsahem	-11.12
▁displejem	-11.12
▁upozornit	-11.1202
▁závisí	-11.1202
▁dohodnout	-11.1203
▁poklesu	-11.1204
pálen	-11.1205
▁základnu	-11.1205
patr	-11.1207
zo	-11.1208
▁aktiv	-11.1208
▁formy	-11.1209
▁stráž	-11.1214
bus	-11.1214
▁pardubic	-11.1214
tisk	-11.1214
▁prosím	-11.1215
▁dluhopisů	-11.1217
▁koncerty	-11.1223
▁technicky	-11.1223
▁pořadatelé	-11.1223
ovec	-11.1224
▁james	-11.1224
čkách	-11.1225
▁poradí	-11.1226
▁rodák	-11.1228
▁přenosu	-11.123
▁polák	-11.123
▁postavu	-11.1232
▁počítačové	-11.1233
▁dívek	-11.1234
▁témata	-11.1234
▁odměny	-11.1235
▁vrch	-11.1238
▁nejspíše	-11.124
▁zvládne	-11.1243
▁dráhu	-11.1245
▁tereza	-11.1246
▁panuje	-11.1248
▁obchodním	-11.1248
▁tepla	-11.1248
▁napsat	-11.125
▁odjel	-11.1253
▁principu	-11.1253
▁kanceláři	-11.1253
▁kapacita	-11.1253
▁can	-11.1254
▁záležet	-11.1255
▁sankcí	-11.1255
▁prodejní	-11.1255
rán	-11.1255
san	-11.1259
star	-11.126
▁media	-11.1261
▁ovládá	-11.1261
ez	-11.1262
▁chlap	-11.1262
▁ital	-11.1264
▁nízkou	-11.1266
▁tre	-11.1266
ram	-11.127
▁vůli	-11.1271
tz	-11.1272
▁odnětí	-11.1276
▁duel	-11.1277
▁palce	-11.1278
▁rozhovory	-11.1278
▁požadoval	-11.1278
▁podpis	-11.1283
▁krejčí	-11.1284
▁art	-11.1286
mel	-11.1287
aby	-11.1289
▁nebezpečný	-11.129
▁klubů	-11.1291
▁poměry	-11.1291
▁zajímavých	-11.1295
▁slyšel	-11.1296
▁mléko	-11.1297
▁volebním	-11.1302
▁dopise	-11.1303
dik	-11.1303
▁týmem	-11.1306
▁architektury	-11.1307
▁víta	-11.1307
▁skutečný	-11.1307
▁snahy	-11.1316
▁nedostatky	-11.1318
▁procházka	-11.1318
▁japonsku	-11.1318
▁odhadnout	-11.1318
▁obývací	-11.132
▁související	-11.1321
▁přistání	-11.1322
▁sedmnáct	-11.1322
▁odboč	-11.1322
▁vytvořila	-11.1324
obě	-11.1324
▁sazba	-11.1328
▁volných	-11.1329
▁odškodnění	-11.1329
▁slušně	-11.1329
▁zmíněný	-11.133
▁mag	-11.1332
staví	-11.1334
▁závodní	-11.1336
▁ukončit	-11.1339
ona	-11.1339
▁operačním	-11.134
jdu	-11.1341
▁těžký	-11.1341
▁dárek	-11.1341
▁multi	-11.1341
▁značkou	-11.1342
▁průvodce	-11.1343
▁provozovatel	-11.1344
▁citoval	-11.1346
▁kanál	-11.1346
▁cigaret	-11.1347
▁sebevědomí	-11.1349
▁snižování	-11.1349
▁čekání	-11.135
čt	-11.1354
▁sloužil	-11.1355
▁výměnu	-11.1355
▁migrantů	-11.1356
▁zveřejnit	-11.136
▁záchod	-11.1361
▁pochybnosti	-11.1361
ab	-11.1361
▁rozměr	-11.1362
všechny	-11.1363
pust	-11.1363
▁brněnského	-11.1368
▁objev	-11.137
▁ruční	-11.137
▁reaguje	-11.137
▁produkci	-11.137
▁buňky	-11.137
▁kun	-11.1371
▁přinesla	-11.1373
bb	-11.1374
▁trvala	-11.1374
▁představila	-11.1376
rka	-11.1376
▁zeď	-11.1377
▁kin	-11.1377
▁požádala	-11.1379
▁londýna	-11.138
▁firmám	-11.1381
▁organizátor	-11.1385
▁největšího	-11.1387
▁vín	-11.1389
▁malém	-11.1389
▁nejrychleji	-11.1392
▁zůstali	-11.1392
▁jakých	-11.1397
▁seděl	-11.1398
▁podzimu	-11.1398
▁cu	-11.1401
▁milióny	-11.1402
▁grafické	-11.1402
▁žáci	-11.1403
▁písní	-11.1404
▁podílí	-11.1406
▁záchranu	-11.1407
▁plánů	-11.1407
tru	-11.1409
▁albert	-11.1409
▁kliniky	-11.1409
▁skrývá	-11.1414
▁komunikací	-11.1414
▁poledne	-11.1415
▁konečný	-11.1415
▁jednal	-11.1416
▁známého	-11.1417
▁spokojen	-11.1419
▁hvězda	-11.1422
▁protikorupční	-11.1424
▁sekundy	-11.1424
▁výstavba	-11.1424
▁čsa	-11.1425
▁nastal	-11.1425
▁vzdělávací	-11.1425
▁vyvolává	-11.1427
vedení	-11.1429
tří	-11.1429
▁vlny	-11.143
▁filtr	-11.143
▁tempo	-11.1431
▁langer	-11.1432
▁zapojit	-11.1434
▁cel	-11.1435
▁příště	-11.1436
▁kudy	-11.1436
▁zasáhla	-11.1438
▁zákrok	-11.1439
▁nůž	-11.1439
▁postava	-11.144
▁záda	-11.1441
▁kongresu	-11.1442
rát	-11.1442
▁společnou	-11.1445
▁království	-11.1445
▁kuk	-11.1445
ret	-11.1446
▁sk	-11.1447
šli	-11.1447
▁pořízení	-11.1448
▁krále	-11.1449
▁obvinil	-11.1449
▁odpadu	-11.145
▁twitteru	-11.1454
gel	-11.1454
▁designér	-11.1455
▁elegantní	-11.1455
bank	-11.1457
▁operátoři	-11.1466
▁příměří	-11.1466
▁vzkaz	-11.1467
▁originál	-11.1468
▁nevědí	-11.1469
mana	-11.1469
▁lékařka	-11.1469
▁energetické	-11.147
▁tramvaje	-11.147
česká	-11.1473
▁umožňují	-11.1476
▁finančního	-11.1476
▁našim	-11.148
▁výbuchu	-11.1486
eta	-11.1487
▁překonat	-11.1487
▁československa	-11.1487
▁nabídkou	-11.1488
▁velvyslanectví	-11.1488
měli	-11.1488
▁vznikají	-11.1489
▁not	-11.1489
▁děláme	-11.149
▁xp	-11.1493
áků	-11.1496
▁kamer	-11.1496
▁návod	-11.1497
▁barva	-11.1497
▁rozum	-11.1499
ata	-11.15
▁výborné	-11.1502
▁celo	-11.1507
▁brány	-11.1508
▁rozhlas	-11.1509
▁tlačítka	-11.151
▁uprchlíky	-11.151
řík	-11.1514
▁američan	-11.1516
▁pozitivně	-11.1516
▁motorem	-11.1518
▁závazky	-11.152
▁ovládat	-11.152
▁sdělit	-11.152
▁ski	-11.152
▁půjčky	-11.152
▁poznání	-11.1523
▁obrátil	-11.1525
▁penězi	-11.1525
▁islámský	-11.1527
▁živé	-11.1528
▁trvale	-11.1529
▁pá	-11.1529
▁verdiktu	-11.153
▁pololetí	-11.1531
▁česky	-11.1531
▁myšlenka	-11.1533
▁hromadné	-11.1533
▁kompletně	-11.1536
▁osudu	-11.1537
▁alb	-11.1538
▁cítil	-11.1538
▁sousední	-11.154
▁nejrychlejší	-11.1541
▁službě	-11.1541
▁nemožné	-11.1542
izoval	-11.1543
▁podoby	-11.1544
▁potvrzují	-11.1544
▁alena	-11.1544
▁iii	-11.1545
▁upravit	-11.1547
▁kolář	-11.1547
▁připravila	-11.1547
▁nemovitost	-11.155
▁afriky	-11.1552
▁týkat	-11.1552
▁spotřební	-11.1552
▁zajistil	-11.1554
▁tunel	-11.1557
▁lokální	-11.156
▁seniory	-11.1561
▁vyrovnání	-11.1561
▁kurzy	-11.1565
▁odhalení	-11.1566
▁kilometr	-11.157
▁pochopit	-11.157
▁černou	-11.157
▁kabát	-11.1571
▁běžného	-11.1573
▁stra	-11.1573
▁radši	-11.1574
▁únik	-11.1575
▁kilo	-11.1576
▁občerstvení	-11.1576
▁misi	-11.1577
▁argumenty	-11.1578
čko	-11.1578
rych	-11.1579
▁plzeňské	-11.1582
▁získává	-11.1584
▁náboženství	-11.1584
▁výjimečně	-11.1584
▁získají	-11.1584
▁spát	-11.1585
▁děj	-11.1588
▁salát	-11.1588
nicích	-11.1591
▁kina	-11.1591
▁pane	-11.1594
▁dovoz	-11.1595
▁volného	-11.1595
▁hluk	-11.1597
▁zahájil	-11.1601
▁zastaví	-11.1602
ón	-11.1604
▁znamení	-11.1606
▁prahou	-11.1606
▁budějovicích	-11.1607
any	-11.1607
▁ocenil	-11.1609
▁kdykoliv	-11.1611
▁otevřeně	-11.1611
▁hranicí	-11.1611
vor	-11.1612
▁dopadlo	-11.1612
▁stahujte	-11.1614
▁vzdal	-11.1614
▁nemuseli	-11.1615
▁party	-11.1615
▁žaloby	-11.1616
▁mládeže	-11.1618
cer	-11.1621
tam	-11.1621
▁dotazy	-11.1621
▁přestup	-11.1621
ino	-11.1623
▁představa	-11.1624
váže	-11.1624
▁příslušníků	-11.1624
▁rostou	-11.1626
▁podzemní	-11.1628
např	-11.1629
▁hájil	-11.163
lovat	-11.1631
iš	-11.1635
▁senior	-11.1636
▁boleslav	-11.1636
▁zdrojem	-11.1637
ticky	-11.1637
enou	-11.1638
▁veronika	-11.1639
▁údržbu	-11.1639
rob	-11.1639
▁ženské	-11.1639
▁přeje	-11.164
▁bul	-11.164
▁mužem	-11.1642
▁pomohlo	-11.1642
▁vědců	-11.1642
▁jmenován	-11.1645
▁lou	-11.1647
▁nápoje	-11.1647
▁umístit	-11.1649
▁zvažuje	-11.165
▁hranicích	-11.1651
cel	-11.1653
▁manželky	-11.1658
▁poklad	-11.1659
▁vládních	-11.1659
▁politolog	-11.166
▁turecka	-11.166
nda	-11.1662
▁záznamy	-11.1669
▁sdělení	-11.1671
▁ochranné	-11.1671
▁petici	-11.1672
▁dávek	-11.1673
▁hoř	-11.1674
▁úspěchy	-11.1674
▁vojenský	-11.1674
▁hal	-11.1674
▁bran	-11.1677
běhl	-11.1677
nský	-11.1677
▁poukázal	-11.168
▁uni	-11.168
čené	-11.1682
▁provádět	-11.1682
▁federace	-11.1682
▁zapomenout	-11.1683
▁zasáhnout	-11.1683
▁mel	-11.1684
▁teoreticky	-11.1685
▁ozdob	-11.1686
▁romana	-11.1687
▁přijede	-11.1688
▁zatčení	-11.1689
▁překvapilo	-11.1689
▁dítěti	-11.1691
▁občanského	-11.1693
▁koz	-11.1693
▁pojetí	-11.1694
▁fronty	-11.1695
▁obává	-11.1696
▁námořní	-11.1697
▁podezřelé	-11.1697
▁podoba	-11.1699
▁nezná	-11.1701
the	-11.1704
▁zadržela	-11.1704
▁kartou	-11.1705
▁západě	-11.1712
test	-11.1714
▁tvorbě	-11.1715
▁účty	-11.1715
▁samostatně	-11.1715
▁úvěry	-11.1715
▁čest	-11.1717
▁vlivu	-11.1718
put	-11.1718
tav	-11.1719
lat	-11.1719
▁umělecké	-11.172
sně	-11.1721
▁ed	-11.1722
▁určitých	-11.1724
▁obnovení	-11.1725
▁komunikovat	-11.1726
▁promile	-11.1727
▁zvýšenou	-11.1728
▁tank	-11.173
▁šu	-11.1733
▁zásoby	-11.1733
▁vojenskou	-11.1737
▁komora	-11.1739
▁redaktor	-11.174
▁inženýr	-11.1742
▁zbývající	-11.1743
▁ničím	-11.1743
▁konkrétních	-11.1746
ip	-11.1747
▁památku	-11.1748
▁praktik	-11.1749
▁obchodě	-11.1751
▁výrazný	-11.1751
▁upřesnila	-11.1757
▁revoluci	-11.1759
▁skladby	-11.176
▁vstoupit	-11.1761
▁časté	-11.1763
▁způsobuje	-11.1763
aných	-11.1765
kraj	-11.1766
▁dodavatele	-11.177
▁ministerstvem	-11.177
art	-11.1771
▁balíček	-11.1771
▁přemýšlet	-11.1771
▁hotové	-11.1774
▁levé	-11.1778
▁krajiny	-11.1778
▁omezené	-11.1779
▁ovlivňuje	-11.1781
▁stránka	-11.1781
▁ručně	-11.1781
▁vrt	-11.1782
▁dokumentace	-11.1783
▁přímý	-11.1783
▁respektovat	-11.1784
▁zlata	-11.1785
▁kapacitou	-11.1787
▁výraznější	-11.1789
proti	-11.1793
▁finální	-11.1795
chem	-11.1796
▁duše	-11.18
▁pravděpodobnost	-11.18
▁sedět	-11.1802
▁kvalifikaci	-11.1803
▁příslušníci	-11.1803
měr	-11.1803
▁čelní	-11.1806
▁údaj	-11.1807
▁upozornění	-11.1807
▁dával	-11.1811
▁amd	-11.1812
▁japonské	-11.1813
ium	-11.1815
sz	-11.1815
▁předmět	-11.1825
▁požadují	-11.1825
▁řecku	-11.1825
▁občanům	-11.1826
▁hodinky	-11.1828
▁sezona	-11.1828
▁náročný	-11.1828
▁jmenovat	-11.1829
▁syrské	-11.1831
▁dospěl	-11.1831
▁důstojník	-11.1836
▁hitler	-11.1836
▁monika	-11.1837
▁zahradu	-11.1838
▁bartoš	-11.184
dán	-11.1842
▁opozici	-11.1843
▁průměrně	-11.1843
▁gu	-11.1844
▁britských	-11.1844
ara	-11.1844
▁smartphone	-11.1847
▁investoři	-11.1847
▁lince	-11.1849
▁agentur	-11.1856
▁perfektní	-11.1858
▁podnět	-11.1859
pon	-11.186
▁celní	-11.1861
▁dosažení	-11.1861
▁chodil	-11.1862
ovič	-11.1864
▁vystoupí	-11.1865
▁cla	-11.1865
▁mercedes	-11.1867
dvor	-11.1868
▁oldřich	-11.1869
▁dobeš	-11.187
▁příčiny	-11.187
▁klasických	-11.1871
ford	-11.1872
▁kuba	-11.1872
▁oslavy	-11.1872
▁obvinila	-11.1872
▁vysloužil	-11.1873
▁španělsko	-11.1874
▁kolektivní	-11.1875
▁kolon	-11.1875
▁hala	-11.1877
▁účetní	-11.1879
▁rud	-11.1881
budeme	-11.1883
ených	-11.1883
▁němců	-11.1884
▁podílu	-11.1884
▁vyšším	-11.1884
▁spadá	-11.1885
hrad	-11.1886
▁pojišťoven	-11.1892
▁sektor	-11.1892
▁vlastník	-11.1892
▁lžíce	-11.1893
▁otevřený	-11.1894
▁poz	-11.1894
puštěn	-11.1897
▁srazil	-11.1898
▁soudců	-11.19
▁publikum	-11.1901
▁boční	-11.1901
▁užívat	-11.1901
kle	-11.1904
▁hodnotit	-11.1904
▁cokoli	-11.1905
▁provedl	-11.1906
▁východu	-11.1908
policisté	-11.1909
▁výhrady	-11.1909
▁stín	-11.1909
▁strachu	-11.1911
▁cenné	-11.1919
▁čerpání	-11.1922
▁špatnou	-11.1925
▁záměru	-11.1929
ora	-11.1932
▁strop	-11.1933
▁úplné	-11.1934
peč	-11.194
▁sportovních	-11.1941
▁ter	-11.1942
▁pla	-11.1942
twitter	-11.1942
▁palác	-11.1942
▁osobě	-11.1943
▁odsouzení	-11.1943
▁učení	-11.1944
▁týkají	-11.1947
▁náročnější	-11.1948
▁ojediněle	-11.1948
▁závodě	-11.195
▁portálu	-11.195
▁výhodnější	-11.1951
▁učitelé	-11.1951
▁oborů	-11.1951
▁narodila	-11.1953
▁majitelem	-11.1953
možná	-11.1953
▁morální	-11.1954
▁potěší	-11.1955
sit	-11.1958
▁hůře	-11.1958
▁chytré	-11.1959
▁vzdát	-11.196
pek	-11.196
▁zřízení	-11.1961
▁jinému	-11.1964
▁uchazečů	-11.1966
▁pokrok	-11.1968
▁obvodu	-11.1969
zení	-11.1969
▁provincii	-11.197
▁pěkné	-11.197
▁kvalifikace	-11.1972
▁ochotni	-11.1974
▁plzeňský	-11.1975
▁rezerv	-11.1979
▁kroků	-11.1979
▁významnou	-11.198
▁absurdní	-11.1982
▁správnou	-11.1982
kous	-11.1983
▁zaměstnancům	-11.1983
díl	-11.1983
kování	-11.1983
▁pin	-11.1983
▁poskytovat	-11.1986
▁hřbitov	-11.1988
anou	-11.1989
▁sledoval	-11.199
▁takzvaných	-11.1991
▁spoje	-11.1993
ind	-11.1995
lít	-11.1996
▁chvilku	-11.1996
▁nu	-11.1997
▁procentech	-11.2001
▁nesou	-11.2002
▁mhd	-11.2006
▁zaplacení	-11.2006
▁skalní	-11.2009
lů	-11.2009
▁litru	-11.2009
▁kovář	-11.2012
est	-11.2012
▁spisu	-11.2013
▁hladiny	-11.2014
▁poly	-11.2015
▁technického	-11.2016
▁úkor	-11.2016
nete	-11.2016
áň	-11.2017
▁nádrže	-11.2019
▁povodí	-11.2021
▁agent	-11.2022
▁pocházejí	-11.2023
▁frank	-11.2025
▁probíhají	-11.2026
▁posílat	-11.2027
▁partnerů	-11.2027
▁rukama	-11.2027
oč	-11.2029
▁mládí	-11.203
▁věděla	-11.203
▁náhle	-11.203
▁krist	-11.2033
▁potvrdilo	-11.2035
▁těl	-11.2036
moc	-11.204
▁zapojení	-11.2041
▁ztratila	-11.2044
▁vozí	-11.2044
oň	-11.2046
▁street	-11.2049
▁efektivní	-11.205
bud	-11.2051
▁vyrovnal	-11.2051
kli	-11.2052
▁ču	-11.2053
▁svobodné	-11.2057
▁americkém	-11.2059
▁schválit	-11.2061
▁vzhůru	-11.2061
▁vybrala	-11.2066
řit	-11.2066
▁navrátil	-11.2066
port	-11.2067
▁květin	-11.2069
▁miloslav	-11.2073
▁šéfka	-11.2075
▁zvolil	-11.2077
▁kým	-11.2077
▁cizinců	-11.2078
ple	-11.208
▁infrastruktury	-11.2083
▁kandidovat	-11.2083
▁nepochybně	-11.2083
▁teorie	-11.2083
▁licence	-11.2083
▁španělsku	-11.2084
invest	-11.2084
▁pohon	-11.2084
▁přežil	-11.2088
protože	-11.2089
▁stromu	-11.209
▁zloděj	-11.2091
▁brambor	-11.2092
off	-11.2093
jat	-11.2093
ovému	-11.2093
▁zodpovědnost	-11.2094
▁vašem	-11.2095
▁reakcí	-11.2095
také	-11.2095
▁nezaměstnanost	-11.2096
▁příležitostí	-11.2097
▁významný	-11.2098
▁kulturu	-11.21
▁shodli	-11.2101
dej	-11.2102
park	-11.2106
▁odchází	-11.2106
▁gott	-11.2107
▁vidíme	-11.211
▁vyvolal	-11.2112
▁win	-11.2113
čel	-11.2114
▁zúčastnit	-11.2118
▁píseň	-11.2118
▁náklad	-11.2118
▁kryt	-11.212
▁rom	-11.2125
▁využili	-11.2126
▁zachoval	-11.2127
▁čerpací	-11.2129
har	-11.2129
▁solidní	-11.213
▁předání	-11.213
▁kontrol	-11.213
▁krátký	-11.2134
▁směn	-11.2134
kají	-11.2135
istů	-11.2136
▁pleti	-11.2137
▁koupila	-11.2139
eli	-11.2139
▁blízký	-11.214
▁ublížení	-11.214
▁princ	-11.2141
▁armádě	-11.2141
▁nedaří	-11.2143
▁trestním	-11.2145
▁využívání	-11.2145
▁zem	-11.2147
ativ	-11.2148
▁hladinu	-11.2148
▁univerzita	-11.2149
nicí	-11.2149
▁veletrhu	-11.215
▁automatické	-11.215
▁dospělí	-11.215
▁zaútočil	-11.2151
▁psychicky	-11.2152
▁svědek	-11.2152
stával	-11.2152
▁složek	-11.2154
▁vůle	-11.2154
▁nahoře	-11.2155
▁poslali	-11.2156
▁islámského	-11.2157
▁původ	-11.2158
af	-11.2162
▁ruchu	-11.2163
▁akt	-11.2163
▁různě	-11.2163
▁řecka	-11.2163
▁významných	-11.2163
bili	-11.2164
▁připomínají	-11.2166
▁kontextu	-11.2167
▁návrhů	-11.2167
▁představy	-11.2168
pas	-11.2169
jděte	-11.2169
▁dvojici	-11.2169
▁starou	-11.217
▁objevilo	-11.217
ňoval	-11.2172
▁uvádějí	-11.2173
▁scénu	-11.2173
▁historicky	-11.2175
▁odpovědět	-11.2175
▁podepsat	-11.2175
hrá	-11.2176
▁řešili	-11.2179
▁postižené	-11.2181
▁marka	-11.2184
▁voják	-11.2185
▁zdanění	-11.2186
▁pronájem	-11.2186
▁mezinárodním	-11.2188
zatímco	-11.2188
▁plánování	-11.2188
▁koncepce	-11.2198
▁anglicky	-11.2198
▁zelení	-11.2199
kar	-11.22
▁štěpánek	-11.2202
▁mostě	-11.2204
tická	-11.2204
▁večeři	-11.2204
▁učitele	-11.2206
los	-11.2207
▁austrálie	-11.2209
▁výzva	-11.2209
▁třinácti	-11.221
▁zdůvodnil	-11.2211
▁platu	-11.2212
gi	-11.2212
▁vál	-11.2213
▁spokojeni	-11.2213
▁brit	-11.2213
▁komunální	-11.2213
▁milimetrů	-11.2214
vedou	-11.2214
▁elitní	-11.2215
ňování	-11.2215
▁gymnázia	-11.2221
▁víceméně	-11.2224
▁přijali	-11.2227
▁kořeny	-11.2228
padají	-11.2231
▁člena	-11.2231
▁veterinární	-11.2232
▁fajn	-11.2233
▁var	-11.2233
bír	-11.2233
▁volantem	-11.2234
▁daly	-11.2234
chází	-11.2235
▁black	-11.2235
▁tele	-11.2235
▁nejtěžší	-11.2238
cký	-11.224
cení	-11.2241
▁naznačuje	-11.2244
▁barokní	-11.2244
▁bezprostřední	-11.2244
▁průběžně	-11.2244
▁chovanec	-11.2244
▁logické	-11.2244
▁obrazovce	-11.2245
▁nožem	-11.2247
▁andrea	-11.2249
▁hoře	-11.225
ls	-11.2252
▁potvrdili	-11.2253
▁nosit	-11.2254
▁slunečnice	-11.2257
▁ocení	-11.2257
▁schopný	-11.2258
íka	-11.2259
▁příčinu	-11.226
▁míra	-11.226
musíme	-11.2262
▁otcem	-11.2262
▁italský	-11.2263
▁zabít	-11.2264
▁právem	-11.2266
▁jaderných	-11.2267
▁energií	-11.2267
▁zážitky	-11.2267
▁budějovice	-11.2268
ros	-11.2269
▁prošla	-11.2271
▁silou	-11.2273
▁dám	-11.2274
▁nedal	-11.2276
▁směs	-11.2278
▁africe	-11.2279
pouští	-11.2279
▁obrazovky	-11.228
▁středeční	-11.228
sc	-11.228
šová	-11.228
▁dělí	-11.2281
▁sochy	-11.2282
▁hc	-11.2283
▁čtyřikrát	-11.2286
▁lcd	-11.2291
▁úklid	-11.2291
▁zvolili	-11.2292
▁mozek	-11.2292
▁západních	-11.2292
▁nápady	-11.2293
▁označila	-11.2293
lec	-11.2294
▁absolvoval	-11.2298
▁zavést	-11.2298
▁islámu	-11.2299
▁záření	-11.2302
čné	-11.2302
žní	-11.2303
▁hrdiny	-11.2303
▁tiskový	-11.2304
▁zařazen	-11.2305
▁uznání	-11.2305
▁vyhledávání	-11.2306
▁beze	-11.2308
▁přirozené	-11.2308
▁dozvíte	-11.2309
▁tyhle	-11.2309
▁nedělá	-11.231
▁tisková	-11.2311
▁nižších	-11.2313
▁písničky	-11.2314
▁balík	-11.2315
▁účastní	-11.2316
▁vytáhl	-11.2316
▁zranil	-11.2316
šel	-11.2316
▁mobilů	-11.2318
kus	-11.2319
▁úspor	-11.232
▁power	-11.232
▁microsoftu	-11.2321
▁přeháňky	-11.2325
▁přiznat	-11.2325
▁šesté	-11.2326
▁partnerství	-11.2326
ujících	-11.2327
▁tón	-11.2333
▁američtí	-11.2335
▁maďarsko	-11.2336
▁útěk	-11.2337
▁žádným	-11.2341
▁fil	-11.2341
policie	-11.2346
▁we	-11.2348
▁probíhat	-11.2348
▁podali	-11.2349
▁motorola	-11.2349
▁něčem	-11.2349
▁hmotnosti	-11.235
dávají	-11.2352
▁oslabení	-11.2353
▁městskou	-11.2355
▁displeji	-11.236
▁deváté	-11.236
▁optimální	-11.236
▁brutální	-11.2361
▁okd	-11.2363
▁američanů	-11.2364
▁některými	-11.2364
▁téhle	-11.2365
▁cr	-11.2366
▁čip	-11.2367
ix	-11.2368
▁rozhovorů	-11.2369
▁konto	-11.2369
▁vedly	-11.2369
▁reprezentant	-11.2371
▁vyšetřovací	-11.2372
▁popírá	-11.2372
syp	-11.2373
▁spolku	-11.2379
▁hodit	-11.238
▁daniela	-11.2381
▁jazyka	-11.2384
▁dělníci	-11.2384
▁úterní	-11.2385
▁vyšetřovatel	-11.2385
one	-11.2386
rem	-11.2386
ah	-11.2386
pokoj	-11.2386
▁game	-11.2387
▁bratra	-11.2391
▁sha	-11.2391
▁bém	-11.2391
byli	-11.2393
▁nedostatku	-11.2395
▁naprosté	-11.2396
▁doporučil	-11.2398
▁dílny	-11.24
ring	-11.2401
▁limity	-11.2404
kup	-11.2405
▁úkolů	-11.2406
▁boží	-11.2406
▁brankáře	-11.2406
▁veškerý	-11.2407
níky	-11.2407
náš	-11.2407
▁váhu	-11.2408
▁znásilnění	-11.2409
▁komfort	-11.241
▁začínal	-11.2416
▁snížila	-11.2417
▁pronájmu	-11.2419
▁pěst	-11.2419
▁reprezentační	-11.2419
▁profesní	-11.2419
▁pozornosti	-11.2419
▁obsazení	-11.242
▁nefunguje	-11.242
▁písku	-11.2421
▁opil	-11.2424
▁členské	-11.2424
▁pivovaru	-11.2426
▁ples	-11.2428
▁přispívá	-11.243
://	-11.2431
išti	-11.2431
ning	-11.2435
▁koncertu	-11.2437
▁těším	-11.2438
▁spal	-11.2439
▁platné	-11.244
▁uskutečnit	-11.2441
▁označením	-11.2442
▁síle	-11.2443
▁sobotky	-11.2444
▁ložnice	-11.2444
▁letouny	-11.2445
▁skok	-11.2445
▁mezd	-11.2445
▁nepříliš	-11.2445
kde	-11.2445
▁dni	-11.2449
▁plav	-11.2449
▁vlakem	-11.245
▁prázdnin	-11.245
▁vyhlášen	-11.2452
▁audit	-11.2452
směr	-11.2453
▁angažmá	-11.2454
▁přijela	-11.2455
prezident	-11.2457
▁chybějící	-11.2458
knout	-11.2458
bach	-11.2458
▁příchodu	-11.2459
▁závažné	-11.2461
▁jih	-11.2462
▁ušetří	-11.2465
▁lístky	-11.2466
▁realizaci	-11.2466
toto	-11.2467
▁konání	-11.2467
▁úsměv	-11.2469
určitě	-11.2471
▁stanov	-11.2473
▁charakteru	-11.2475
way	-11.2477
▁prevence	-11.2478
▁výjimku	-11.2478
▁zaorálek	-11.2478
▁omezen	-11.2478
▁křeslo	-11.2478
▁pneumatik	-11.2482
▁vlaků	-11.2483
nců	-11.2484
▁devadesát	-11.2485
▁hrubý	-11.2486
▁vary	-11.2489
▁šetří	-11.2491
nec	-11.2492
▁metro	-11.2493
▁fu	-11.2493
▁studovat	-11.2493
▁zabýval	-11.2493
▁panem	-11.2494
▁nalézt	-11.2497
▁parlamentních	-11.2501
▁občanství	-11.2502
▁plech	-11.2508
▁figur	-11.251
▁virus	-11.2511
▁tvorby	-11.2513
▁doplňky	-11.2513
▁zraněno	-11.2514
▁lehčí	-11.2515
▁free	-11.2516
▁děd	-11.2517
▁účastníky	-11.2518
▁herce	-11.252
▁nevz	-11.2521
▁olomouckého	-11.2524
▁gps	-11.2524
▁vodafone	-11.2524
▁studené	-11.2527
▁nepůjde	-11.2528
tické	-11.2528
ovkou	-11.2529
▁prsty	-11.2529
▁liberecký	-11.2529
sto	-11.2532
▁věra	-11.2532
▁jur	-11.2532
tedy	-11.2535
▁dobrodružství	-11.2537
▁prudce	-11.2537
▁kritizuje	-11.2537
▁planety	-11.2538
árně	-11.2538
▁vlastimil	-11.2541
▁nedostane	-11.2541
▁linek	-11.2541
▁předpisů	-11.2543
▁málem	-11.2544
▁živí	-11.2544
▁turecku	-11.2549
▁osmnácti	-11.255
▁lak	-11.255
▁zahynul	-11.2551
▁vhodná	-11.2553
▁bouřky	-11.2561
▁odlišné	-11.2561
▁referenda	-11.2561
▁tratě	-11.2562
bert	-11.2564
▁výstavě	-11.2564
chal	-11.2564
▁vladimir	-11.2564
▁tah	-11.2566
▁uskupení	-11.2573
▁topolánka	-11.2573
▁ultra	-11.2573
▁setkat	-11.2574
▁rozhlasu	-11.2575
▁preventivní	-11.2578
▁styku	-11.2581
▁použili	-11.2581
▁mhz	-11.2581
▁akorát	-11.2585
▁boleslavi	-11.2588
▁stb	-11.2589
▁dáme	-11.2592
▁obávají	-11.2593
izuje	-11.2595
▁svobod	-11.2598
▁nemocnicích	-11.2601
třeba	-11.2602
▁zúčastnil	-11.2603
▁anonymní	-11.2607
▁betlém	-11.2609
▁kupříkladu	-11.2609
▁politicky	-11.2609
▁ničemu	-11.2611
▁producent	-11.2613
▁podpisu	-11.2613
▁předložit	-11.2614
▁fronta	-11.2614
▁ověřit	-11.2615
▁obžalovaných	-11.2615
šení	-11.2615
▁podlehl	-11.2616
▁výbuch	-11.2617
áku	-11.2619
▁vesměs	-11.2621
▁čermák	-11.2621
▁celkovou	-11.2621
▁krásná	-11.2622
▁normy	-11.2622
▁vypověděl	-11.2625
▁medaile	-11.2625
inová	-11.2626
▁žánr	-11.2627
▁ztratí	-11.2629
▁bit	-11.263
liš	-11.263
▁bíl	-11.2631
▁izraele	-11.2632
▁čeština	-11.2633
měst	-11.2633
nis	-11.2634
▁hledal	-11.2638
▁spojit	-11.2638
hlas	-11.264
▁ploch	-11.264
▁krav	-11.2641
▁záložník	-11.2642
▁zastavila	-11.2643
▁jaro	-11.2647
▁výměna	-11.2647
▁johna	-11.2647
▁zaměřuje	-11.265
▁sun	-11.2652
▁zastávky	-11.2657
▁zmizí	-11.2657
▁prodejci	-11.2659
▁přesný	-11.266
▁obecné	-11.2662
▁rádio	-11.2662
▁novinek	-11.2663
▁obvod	-11.2666
▁přítelkyně	-11.2669
▁radar	-11.2669
rub	-11.2669
▁znalec	-11.2672
ida	-11.2672
▁získalo	-11.2674
▁odpolední	-11.2674
iletá	-11.2675
▁potkal	-11.2675
▁wo	-11.2675
▁středo	-11.2678
▁opatrně	-11.268
▁dani	-11.268
▁útěku	-11.268
▁přibližuje	-11.2681
▁respondentů	-11.2681
▁odhalit	-11.2681
taj	-11.2683
▁zahájila	-11.2683
▁popel	-11.2684
▁chráněné	-11.2684
▁mráz	-11.2685
▁izraelské	-11.2687
ačky	-11.2688
ung	-11.269
letos	-11.2691
▁záměrně	-11.2691
▁evidentně	-11.2693
▁kadlec	-11.2693
▁obchodování	-11.2694
▁zveřejnila	-11.2695
nci	-11.2695
▁výklad	-11.2695
dávat	-11.2695
▁čtenářů	-11.2697
▁vlád	-11.2697
pé	-11.2698
sáhl	-11.2698
▁ptal	-11.2699
▁portrét	-11.27
rost	-11.2702
lán	-11.2703
▁jihlavě	-11.2705
▁poslankyně	-11.2705
▁požadovat	-11.2705
▁různá	-11.2705
▁jídelní	-11.271
lf	-11.2711
▁uložit	-11.2713
▁projeví	-11.2713
▁zaměřit	-11.2713
čná	-11.2716
▁olomoucký	-11.2717
▁výbavě	-11.2718
▁oblačno	-11.2718
▁trvalé	-11.272
▁debaty	-11.272
▁omluvil	-11.272
denní	-11.272
pálil	-11.272
šková	-11.2721
▁kupní	-11.2722
▁cílů	-11.2723
▁porod	-11.2723
▁šampion	-11.2725
itě	-11.2726
▁brýle	-11.2726
▁jack	-11.2726
dor	-11.2726
řil	-11.2728
▁představitele	-11.2728
něte	-11.2729
▁produktu	-11.273
níku	-11.2732
▁posil	-11.2734
zol	-11.2737
▁cizinci	-11.2742
▁architekta	-11.2745
hlavní	-11.2748
▁jakési	-11.2748
▁domluvit	-11.2751
▁pekingu	-11.2752
▁obžalovaného	-11.2752
tion	-11.2753
mysl	-11.2753
▁zdražení	-11.2753
▁akutní	-11.2754
▁čunek	-11.2754
▁scén	-11.2755
▁vězni	-11.2756
▁chrám	-11.2756
▁šedesáti	-11.2759
▁matkou	-11.276
▁irácké	-11.2761
▁kláves	-11.2762
nická	-11.2765
▁ambice	-11.2766
▁držení	-11.2768
▁spáchání	-11.2769
leb	-11.277
▁mí	-11.2771
▁zeměmi	-11.2774
atel	-11.2776
▁dokázat	-11.2777
▁tržeb	-11.2778
▁dodržovat	-11.2778
▁playstation	-11.2778
▁církev	-11.2781
cl	-11.2782
sson	-11.2782
▁kluby	-11.2783
novi	-11.2785
histor	-11.2786
▁mrtvé	-11.2786
▁zdánlivě	-11.279
▁brown	-11.279
▁zádech	-11.279
její	-11.2792
▁telecom	-11.2793
▁změnám	-11.2793
▁léčení	-11.2793
kk	-11.2796
▁wa	-11.2797
▁slev	-11.2799
▁bílou	-11.2801
▁chov	-11.2801
stil	-11.2801
▁cíli	-11.2801
▁pomohou	-11.2801
▁scénáře	-11.2802
▁všeobecné	-11.2802
▁elektráren	-11.2802
▁editor	-11.2803
▁patra	-11.2803
▁vině	-11.2806
▁skrze	-11.2806
▁prodá	-11.2808
tice	-11.281
▁prezidentských	-11.2813
▁nemocných	-11.2815
hne	-11.2816
▁francouzského	-11.2816
▁únos	-11.2816
▁jasná	-11.2818
▁pedagog	-11.2825
gg	-11.2826
▁cameron	-11.2827
▁pardubicích	-11.2828
▁zajistili	-11.283
▁čtenáře	-11.2832
šle	-11.2832
pil	-11.2833
▁pokut	-11.2833
šil	-11.2833
▁souhlasil	-11.2833
▁koupili	-11.2834
▁strávit	-11.2839
▁motorů	-11.284
hlá	-11.2841
proto	-11.2841
▁činil	-11.2845
▁manévr	-11.2847
▁desáté	-11.2847
az	-11.285
áčka	-11.2851
dol	-11.2856
rig	-11.2857
kali	-11.2857
▁manželku	-11.2858
blok	-11.2859
prodej	-11.286
▁půjdou	-11.2863
▁atom	-11.2864
▁investici	-11.2867
mor	-11.2868
▁programem	-11.2869
▁dobro	-11.287
turist	-11.2872
dané	-11.2873
nášel	-11.2874
▁dětského	-11.2874
▁rekonstrukcí	-11.2876
▁pravidlo	-11.2876
▁psychické	-11.2876
▁nevidím	-11.2877
▁vytápění	-11.2878
▁jinam	-11.2878
▁předních	-11.2878
▁mzda	-11.2879
▁psí	-11.2882
tovat	-11.2885
▁vaří	-11.2888
▁poskytne	-11.2888
▁zbytku	-11.2888
lic	-11.2888
▁prototyp	-11.2889
▁žluté	-11.2889
▁dělala	-11.289
▁potřetí	-11.289
▁nabídla	-11.2892
▁červenou	-11.2893
▁mareš	-11.2893
▁zraněním	-11.2895
▁rot	-11.2896
pů	-11.2898
▁patřila	-11.2898
▁korunu	-11.2899
▁neuvěřitelné	-11.29
▁růžička	-11.2901
▁domku	-11.2902
▁rozhodnuto	-11.2907
▁vnímá	-11.2907
kvůli	-11.2909
vací	-11.291
▁rám	-11.2912
▁přesun	-11.2912
▁užít	-11.2913
▁umožnit	-11.2913
▁předměstí	-11.2913
▁hůř	-11.2913
▁nasa	-11.2913
olu	-11.2913
▁pravou	-11.2916
▁navrhla	-11.2917
trh	-11.2917
▁argument	-11.2919
▁sar	-11.2919
▁mřížemi	-11.2921
▁hlídky	-11.2921
▁divu	-11.2922
▁daný	-11.2922
▁obrazů	-11.2923
▁referendu	-11.2925
▁partneři	-11.2925
▁soustředí	-11.2925
▁justice	-11.2925
▁nezmění	-11.2926
▁klade	-11.2927
▁suchý	-11.2927
▁soli	-11.2927
▁lepším	-11.2929
▁řetězce	-11.293
dia	-11.2931
▁vozem	-11.2933
poslední	-11.2933
▁národa	-11.2934
▁nechte	-11.2935
ecká	-11.2936
▁rozhodnou	-11.2937
▁zpravodajské	-11.2938
dět	-11.2939
▁přijala	-11.2941
▁nahradil	-11.2941
ať	-11.2943
▁synem	-11.2943
ston	-11.2944
▁dluhů	-11.2945
▁uprchl	-11.2949
▁okresního	-11.295
▁berlíně	-11.2954
▁hradní	-11.2957
▁způsobila	-11.2957
▁neuspěl	-11.2958
▁potřeb	-11.2959
▁kontrakt	-11.2962
▁insolvenční	-11.2962
▁wolf	-11.2962
▁nutná	-11.2962
▁volbou	-11.2963
▁znal	-11.2968
novou	-11.2971
▁dostupnost	-11.2973
drží	-11.2973
ap	-11.2973
▁porota	-11.2975
▁povstalci	-11.2975
stro	-11.2977
▁přítele	-11.2979
▁minulost	-11.298
▁bojují	-11.2981
▁konektor	-11.2987
▁vyplynulo	-11.2987
▁teplotu	-11.299
▁interpret	-11.299
▁plánují	-11.2991
▁pozdější	-11.2992
▁vyvolat	-11.2992
▁kate	-11.2993
▁říkáte	-11.2995
▁nenechá	-11.2998
cal	-11.2999
▁reagovala	-11.3001
▁bránil	-11.3002
▁chlapci	-11.3003
▁horké	-11.3005
▁varech	-11.3005
▁přímém	-11.3005
▁krejčíř	-11.3006
▁zelenou	-11.3006
▁chystané	-11.3008
▁prodejny	-11.3009
jit	-11.3011
dů	-11.3011
dala	-11.3012
▁udeřil	-11.3012
▁běžnou	-11.3012
▁většího	-11.3013
▁patrik	-11.3013
ust	-11.3014
▁viní	-11.3014
▁hmoty	-11.3016
▁skončily	-11.3016
▁zákazníka	-11.3016
▁autobusové	-11.3017
▁slevu	-11.3017
stupují	-11.3019
▁bab	-11.3019
▁šv	-11.3019
▁čelit	-11.3025
kých	-11.3027
▁triumf	-11.3028
▁trhů	-11.303
▁přidá	-11.3031
▁plném	-11.3032
klad	-11.3033
▁uložení	-11.3035
▁tj	-11.3035
divo	-11.3036
▁češtiny	-11.3037
▁slavia	-11.3037
▁prvo	-11.3038
▁speciál	-11.3038
▁romů	-11.3039
▁stali	-11.3041
ťák	-11.3041
▁akcích	-11.3041
bere	-11.3041
place	-11.3042
▁dnešních	-11.3043
▁poskytl	-11.3045
př	-11.3045
▁záznamu	-11.3045
▁bouře	-11.3049
▁doležal	-11.305
▁posoudit	-11.305
▁obory	-11.3051
▁hrozil	-11.3051
▁architekti	-11.3051
▁fakultě	-11.3052
▁uvidíte	-11.3052
▁poskytování	-11.3054
▁nehodlá	-11.3056
▁ledu	-11.3057
čk	-11.3058
růst	-11.3059
▁jeví	-11.3059
nož	-11.306
▁budějovic	-11.306
▁vysočina	-11.3063
olog	-11.3063
▁nikam	-11.3063
měř	-11.3063
snad	-11.3064
▁jednotlivými	-11.3067
▁tro	-11.3067
▁ar	-11.3068
▁moderních	-11.3068
▁čištění	-11.3068
▁nevěří	-11.3068
▁otevřeno	-11.307
▁ležící	-11.307
▁výskyt	-11.3071
▁zaujme	-11.3072
▁west	-11.3073
▁službách	-11.3075
▁lahve	-11.3075
▁požadavků	-11.3075
▁kapsy	-11.3075
▁vpravo	-11.3075
▁koukal	-11.3078
▁počítají	-11.3079
▁dobrých	-11.3079
▁odsoudil	-11.308
▁hledali	-11.3081
▁developer	-11.3081
▁příznaky	-11.3082
táhnout	-11.3089
eg	-11.309
ben	-11.3092
▁ide	-11.3094
střelil	-11.3095
▁motivy	-11.3095
▁raj	-11.3096
▁jednáním	-11.3096
▁havárie	-11.31
▁bursík	-11.31
▁někdejšího	-11.3102
nské	-11.3102
ura	-11.3106
▁zelená	-11.3107
▁rektor	-11.3107
▁bohu	-11.3109
▁žák	-11.311
▁soukromý	-11.311
▁volno	-11.311
las	-11.311
lk	-11.3111
▁mix	-11.3111
▁životu	-11.3111
▁volbám	-11.3112
▁smí	-11.3115
▁československé	-11.3117
▁datové	-11.3117
▁odpovědí	-11.3117
▁revoluční	-11.3119
▁osvobození	-11.312
▁klad	-11.3122
▁pohodlí	-11.3125
▁spotřeby	-11.3125
▁sazeb	-11.3125
rej	-11.3125
▁svědci	-11.3126
▁podklady	-11.3128
▁louis	-11.3129
▁hypotéky	-11.3129
▁červený	-11.3129
▁připomněla	-11.3131
▁olomouce	-11.3131
▁církevní	-11.3132
čce	-11.3132
▁prioritou	-11.3132
▁klasickou	-11.3138
▁ustanovení	-11.3139
▁favorit	-11.314
▁trans	-11.314
▁přijímat	-11.3142
▁stěžují	-11.3142
rozen	-11.3142
▁postih	-11.3145
íčka	-11.3145
bul	-11.3147
▁lhůtu	-11.3147
▁kongres	-11.3148
▁zloději	-11.3149
▁skončili	-11.315
znám	-11.3152
▁kuchyň	-11.3153
▁návštěv	-11.3154
▁miliardu	-11.3154
▁hospody	-11.3157
▁psychiatr	-11.3158
bs	-11.3158
vet	-11.3159
▁federální	-11.316
bat	-11.316
▁výška	-11.3162
▁doplnit	-11.3163
▁něčeho	-11.3163
▁panu	-11.3164
▁výdrž	-11.3166
▁dejte	-11.3168
▁zadržen	-11.3169
▁war	-11.3169
▁korupční	-11.317
▁nastoupit	-11.3171
▁témat	-11.3174
▁účtů	-11.3176
▁třem	-11.3176
▁americkým	-11.3177
právní	-11.3179
▁právního	-11.318
▁otrav	-11.3182
jedete	-11.3184
▁bond	-11.3185
▁pohodlně	-11.3187
▁turnaji	-11.3188
▁vypadl	-11.319
▁oblíbený	-11.3191
ával	-11.3191
▁červená	-11.3192
chut	-11.3193
▁negativně	-11.3198
▁zpívá	-11.3199
▁cenové	-11.3202
rit	-11.3203
▁neudělal	-11.3203
▁technický	-11.3204
▁čte	-11.3205
▁mol	-11.3211
▁slibují	-11.3212
▁organizační	-11.3214
▁přizpůsobit	-11.3214
▁lahví	-11.3214
▁vedli	-11.3214
▁multimediální	-11.3215
▁ras	-11.3216
▁sešlo	-11.3216
▁žáky	-11.3219
jm	-11.3219
▁čekala	-11.3221
▁viny	-11.3221
▁nákupy	-11.3222
▁projevy	-11.3222
▁domech	-11.3223
▁učinil	-11.3224
nově	-11.3226
ickém	-11.3226
▁nejznámější	-11.3227
rh	-11.3228
čtěte	-11.3228
▁diplomat	-11.3231
und	-11.3231
▁dospělých	-11.3232
▁květ	-11.3233
zor	-11.3234
cké	-11.3234
▁střelec	-11.3235
▁nabídek	-11.3239
▁laser	-11.3245
sah	-11.3247
brit	-11.3247
▁soutěžní	-11.3247
▁odpůrci	-11.3247
ladit	-11.3249
▁gen	-11.325
▁zvyšovat	-11.3252
▁továrny	-11.3252
sport	-11.3252
▁ekonomicky	-11.3252
▁myšlení	-11.3253
projekt	-11.3255
gor	-11.3257
▁spis	-11.3258
▁dcerou	-11.3261
áka	-11.3261
▁pokyn	-11.3262
▁tvrdila	-11.3264
▁pochopení	-11.3265
▁umět	-11.3265
▁pravdou	-11.3265
bla	-11.3266
▁polí	-11.3268
▁magazínu	-11.3271
▁pracovním	-11.3273
▁odstoupil	-11.3273
▁nutnosti	-11.3274
stavba	-11.3274
▁úprav	-11.3275
▁dítětem	-11.3277
▁převzetí	-11.3278
▁spořitelna	-11.3278
▁zkouška	-11.3278
▁obrazových	-11.3278
▁učitelů	-11.328
▁nedostali	-11.3283
▁určený	-11.3283
ečky	-11.3285
▁situacích	-11.3285
▁rakoviny	-11.3287
▁francouz	-11.3287
▁postižených	-11.3288
▁týdnem	-11.3288
▁léčbě	-11.329
▁koupelny	-11.3291
▁zóně	-11.3294
▁muslim	-11.3294
▁podvodu	-11.3295
▁kontě	-11.3296
zhruba	-11.3298
▁kosti	-11.3299
nička	-11.3299
▁stání	-11.3299
▁pásmu	-11.3302
▁líp	-11.3303
▁uplatnit	-11.3303
▁navazuje	-11.3304
▁von	-11.3304
▁místností	-11.3304
con	-11.3305
▁staro	-11.3308
ph	-11.3309
▁psi	-11.3309
▁beton	-11.3312
lky	-11.3315
▁příspěvku	-11.3316
▁vzpomínky	-11.3316
▁kolekce	-11.3316
▁dorazila	-11.3316
rok	-11.3316
▁investorů	-11.3318
škol	-11.332
pálí	-11.332
▁chtělo	-11.3323
▁výbava	-11.3325
▁oslovil	-11.3325
město	-11.3325
stě	-11.3326
rén	-11.3328
▁rezignoval	-11.3329
inger	-11.333
▁zvládá	-11.333
▁jezera	-11.333
▁detektiv	-11.333
▁dozvěděli	-11.3331
▁doporučují	-11.3332
▁milana	-11.3337
▁komunisty	-11.3338
▁vývojáři	-11.3339
▁pomohli	-11.3339
▁chi	-11.334
▁podmínku	-11.3342
▁podlahy	-11.3342
▁odvolat	-11.3344
▁dálniční	-11.3346
▁mile	-11.3348
▁chápu	-11.3352
graf	-11.3354
▁oživení	-11.3355
▁radio	-11.3356
▁dokumentaci	-11.3357
▁indii	-11.3357
▁projednání	-11.3359
lič	-11.3359
▁mon	-11.336
▁chytil	-11.336
lát	-11.3363
▁důchodce	-11.3364
▁obr	-11.3364
▁island	-11.3364
razil	-11.3365
jdou	-11.3366
front	-11.3367
▁rezignaci	-11.3368
▁článků	-11.3368
▁petice	-11.337
▁klíče	-11.337
▁vydržet	-11.3371
▁podklad	-11.3373
▁zemědělské	-11.3378
povídal	-11.3379
▁dosavadních	-11.3379
▁zmíněných	-11.3379
▁nominaci	-11.3381
▁fiala	-11.3382
▁pátý	-11.3383
tvor	-11.3383
rich	-11.3384
▁vyrazí	-11.3385
pel	-11.3386
▁bývalým	-11.3392
▁vily	-11.3393
▁stoprocentně	-11.3394
dru	-11.3394
▁krizí	-11.3394
▁kritice	-11.3394
▁výrobek	-11.3395
▁vítá	-11.3395
▁pojede	-11.3396
▁úžasné	-11.3396
sty	-11.3396
▁jistá	-11.3399
brali	-11.34
▁otevřená	-11.3404
▁jednací	-11.3404
chytal	-11.3412
▁len	-11.3414
▁duch	-11.3414
▁návštěvníkům	-11.3415
▁vzdálené	-11.3415
▁vyzvala	-11.3417
▁vyhovuje	-11.3419
▁ničeho	-11.3419
▁zraněný	-11.3423
▁sval	-11.3425
▁ledvin	-11.3426
brou	-11.3427
▁metoda	-11.3429
▁desce	-11.343
▁pozemní	-11.343
▁iva	-11.343
▁atentát	-11.3431
▁projektem	-11.3432
▁bel	-11.3432
▁výpovědí	-11.3432
▁zeleniny	-11.3432
▁schodiště	-11.3433
▁bydlet	-11.3433
▁táta	-11.3435
▁paříž	-11.3435
hnout	-11.3437
▁holky	-11.3438
▁bloku	-11.3445
▁prohlídku	-11.3445
▁licenci	-11.3446
▁nejraději	-11.3446
▁židle	-11.3446
▁upřímně	-11.3446
▁poruchy	-11.3446
▁usiluje	-11.3447
▁tmavé	-11.3447
šky	-11.3448
▁jihomoravský	-11.3448
▁úniku	-11.3449
▁zasáhl	-11.3449
▁sponzor	-11.345
▁spáchal	-11.3451
▁may	-11.3452
▁chovají	-11.3454
shop	-11.3454
▁tomhle	-11.3461
▁vlnu	-11.3461
▁zavolal	-11.3462
▁klášter	-11.3464
▁přestal	-11.3467
▁extra	-11.3468
▁neznám	-11.347
▁velkými	-11.347
▁nesouhlas	-11.3473
inka	-11.3476
▁schválen	-11.3477
▁výrok	-11.3484
▁prohlídce	-11.3485
▁odkaz	-11.3485
▁výstavbě	-11.3485
▁prvotní	-11.3485
▁legální	-11.3485
▁švýcarsku	-11.3485
▁jednotné	-11.3485
▁vystudoval	-11.3485
▁nohu	-11.3488
▁důležitých	-11.3488
▁protestů	-11.3489
▁zklamání	-11.3489
▁letounu	-11.3489
▁char	-11.349
▁protokol	-11.3493
▁dres	-11.3496
▁ohrozit	-11.3498
▁žádného	-11.3499
▁facto	-11.3499
▁kandidáty	-11.3499
ča	-11.35
▁vyprávění	-11.35
▁bral	-11.3503
▁bill	-11.3503
▁sledují	-11.3504
kého	-11.3504
tri	-11.3506
▁úrovní	-11.3507
▁tramvaj	-11.3508
▁fra	-11.3511
▁znění	-11.3511
▁užívá	-11.3511
▁registru	-11.3511
▁přijat	-11.3511
▁piloti	-11.3511
▁oficiálním	-11.3512
▁obecní	-11.3515
▁léčiv	-11.3518
▁stávají	-11.3518
▁lokalit	-11.3518
jestli	-11.3519
▁expozici	-11.3519
▁připraveny	-11.3519
▁zábavu	-11.3519
▁zemřeli	-11.352
▁golf	-11.3521
▁výš	-11.3522
▁bolí	-11.3523
▁dokazuje	-11.3524
▁hesla	-11.3526
▁opakované	-11.3526
▁nucen	-11.3526
▁výměnou	-11.3526
▁jakýsi	-11.3528
▁přihlásil	-11.3529
škod	-11.3532
▁bělo	-11.3533
▁chleba	-11.3533
iss	-11.3535
▁běl	-11.3538
▁kostele	-11.3538
▁babička	-11.3538
▁pořádek	-11.3543
▁tvůrce	-11.3543
▁volal	-11.3544
▁pic	-11.3549
▁primář	-11.3549
▁komplikací	-11.355
▁půdu	-11.355
▁maminky	-11.355
▁plzeňského	-11.355
▁sledovali	-11.3553
▁zanechal	-11.3553
▁fan	-11.3554
řidič	-11.3555
▁vybere	-11.3556
chtěl	-11.3556
ána	-11.3559
▁armádu	-11.3559
sd	-11.3562
▁hyundai	-11.3563
▁sad	-11.3564
▁půjčku	-11.3564
▁kamera	-11.3564
vost	-11.3565
▁slušný	-11.3566
▁nejste	-11.3566
▁internetového	-11.3567
▁postupy	-11.3567
▁červ	-11.3576
▁stojící	-11.3576
▁zákoníku	-11.3576
▁skvělou	-11.3577
kládá	-11.3577
▁životů	-11.3577
▁klíčových	-11.3579
▁nositel	-11.358
▁lamp	-11.3584
www	-11.3584
určitá	-11.3585
▁kladně	-11.3585
din	-11.3588
▁tratí	-11.3589
▁obchodníci	-11.3594
▁home	-11.3595
tah	-11.3596
▁celku	-11.3597
velmi	-11.3597
▁šetřit	-11.3598
hn	-11.3599
▁scéna	-11.3599
▁šampionát	-11.36
▁chemické	-11.36
▁nabízel	-11.3603
▁nereagoval	-11.3603
▁útočníka	-11.3603
▁vodních	-11.3603
▁připraví	-11.3604
▁iniciativy	-11.3605
▁přežít	-11.3605
▁křídla	-11.3605
▁připravovat	-11.3607
emi	-11.3608
▁deficit	-11.3608
▁výhod	-11.3608
▁průvod	-11.361
▁senátorů	-11.3614
▁maďarsku	-11.3617
poškozen	-11.3618
▁předat	-11.362
▁kdykoli	-11.362
petr	-11.362
▁blog	-11.3621
▁stovku	-11.3621
plán	-11.3625
▁důkazem	-11.3625
▁reg	-11.3628
wi	-11.3629
▁olympijské	-11.3629
centr	-11.363
▁chelsea	-11.363
▁vyvíjí	-11.363
gon	-11.363
▁odběr	-11.3631
iček	-11.3633
▁sebevraždu	-11.3634
▁rizik	-11.3636
▁ukázaly	-11.3637
▁komisař	-11.364
▁nutnost	-11.364
šák	-11.3642
▁obcích	-11.3642
▁piv	-11.3643
dělá	-11.3643
▁uvažovat	-11.3643
▁zasahovat	-11.3643
▁posílá	-11.3643
bod	-11.3643
▁divoké	-11.3643
▁slabé	-11.3644
▁reklamu	-11.3645
lux	-11.3646
▁cho	-11.3646
▁pneumatiky	-11.365
▁křiv	-11.3655
▁čerstvý	-11.3655
▁trenéři	-11.3656
▁youtube	-11.3659
▁petrem	-11.3661
▁inteligentní	-11.3662
▁zeptal	-11.3662
▁průzkumů	-11.3663
▁music	-11.3665
▁občanských	-11.3666
▁zahrát	-11.3668
▁režiséra	-11.3668
ismem	-11.3669
▁sídla	-11.367
int	-11.367
aktiv	-11.3674
▁barvě	-11.3674
▁vražd	-11.368
▁krátkou	-11.3681
▁nezávislé	-11.3681
největší	-11.3682
▁poskytují	-11.3685
▁převezen	-11.3685
▁tajných	-11.3688
▁investory	-11.3688
▁france	-11.3689
▁ostrovy	-11.3689
▁zaplatíte	-11.369
▁schopností	-11.3692
▁věnují	-11.3692
▁kategorií	-11.3692
▁marketing	-11.3694
▁shrnul	-11.3694
▁sběr	-11.3696
▁kouzlo	-11.3696
▁zahájit	-11.3696
▁zkoušku	-11.3696
▁stráví	-11.3696
cc	-11.3697
▁paroubka	-11.3698
▁proměnil	-11.3698
▁postaven	-11.37
▁nájemní	-11.3701
▁obyvatelům	-11.3703
▁slavného	-11.3703
▁žila	-11.3706
▁nečekal	-11.3707
▁velvyslanec	-11.3709
▁schůzi	-11.371
▁vydírání	-11.371
▁učinit	-11.371
▁technická	-11.371
▁barbora	-11.371
▁světle	-11.371
▁kolech	-11.3712
▁řetěz	-11.3713
▁proběhla	-11.3713
▁pít	-11.3715
kom	-11.3716
ováni	-11.3718
▁sůl	-11.3719
▁soudů	-11.372
sť	-11.372
▁studoval	-11.3723
▁kulturního	-11.3725
▁podávat	-11.3726
▁omyl	-11.3726
▁chuti	-11.3727
▁čtvrtka	-11.3727
kdy	-11.3727
▁pustí	-11.3728
vět	-11.3728
běž	-11.373
uška	-11.3731
▁stihl	-11.3731
▁postoje	-11.3734
▁zahájí	-11.3735
▁koupaliště	-11.3736
▁luboš	-11.3737
▁spí	-11.3738
▁flash	-11.3738
▁odpovídal	-11.374
▁překvapil	-11.3743
▁zázrak	-11.3744
▁vypadal	-11.3744
▁splnění	-11.3745
▁zakázal	-11.3745
▁ros	-11.3747
iky	-11.3747
▁bojoval	-11.3747
▁bankovnictví	-11.375
▁databáze	-11.375
▁střešní	-11.375
▁kur	-11.3751
▁nazval	-11.3751
▁majitelka	-11.3751
▁objevovat	-11.3754
ama	-11.3755
rik	-11.3755
▁nebrání	-11.3755
vané	-11.3756
tat	-11.3759
jíždět	-11.3761
▁výnosy	-11.3763
▁pasivní	-11.3764
▁uspěl	-11.3766
▁stěhování	-11.3766
▁spolupracoval	-11.3767
tně	-11.3767
▁der	-11.3768
▁dosáhne	-11.3768
▁mladého	-11.377
laš	-11.3771
▁všemu	-11.3771
kontrol	-11.3772
▁pohonný	-11.3774
▁zelený	-11.3775
▁sešli	-11.3775
▁všiml	-11.3776
▁rozumí	-11.3777
gra	-11.3777
▁patřit	-11.3777
try	-11.3778
ms	-11.3779
▁projednávání	-11.378
▁jakousi	-11.378
▁dam	-11.3781
▁robot	-11.3783
▁zkoumání	-11.3786
▁přísně	-11.379
▁kučera	-11.379
▁anglii	-11.379
▁dotyčný	-11.379
▁redakci	-11.379
▁probíhající	-11.3791
▁neposlední	-11.3791
▁klik	-11.3794
tický	-11.3795
▁es	-11.3795
back	-11.3796
jím	-11.3797
▁cor	-11.3797
gs	-11.3797
▁bomba	-11.3799
▁projde	-11.3801
▁nastínil	-11.3802
▁obtížně	-11.3803
▁nepříjemný	-11.3804
▁odešla	-11.3804
▁vojenská	-11.3805
▁kříže	-11.3805
▁planet	-11.3806
▁vyp	-11.3806
▁umělců	-11.3806
▁podezřelých	-11.3806
▁bomb	-11.3806
daná	-11.3809
▁přístavu	-11.3809
▁politickým	-11.381
▁zpracovat	-11.3814
▁čtvereční	-11.3814
▁tramvají	-11.3814
▁tradičních	-11.3815
▁vytvářejí	-11.3816
▁zjistíte	-11.3817
▁siemens	-11.3817
▁účastnil	-11.3819
▁dobrém	-11.382
metrové	-11.382
▁hotovosti	-11.3823
▁putina	-11.3824
▁dokončit	-11.3831
▁označit	-11.3831
▁označují	-11.3831
▁televizí	-11.3831
▁mega	-11.3831
▁vědom	-11.3833
▁ústeckém	-11.3834
gin	-11.3834
▁komplexu	-11.3834
ow	-11.3836
▁odhadl	-11.3836
▁management	-11.3837
▁provozovat	-11.3839
▁bývalou	-11.384
▁obchodníků	-11.384
ill	-11.384
pozor	-11.3841
▁ulicí	-11.3842
▁jazz	-11.3843
tul	-11.3843
▁západním	-11.3845
▁starostové	-11.3845
▁královské	-11.3846
▁přežití	-11.3846
▁kupovat	-11.3846
níka	-11.3847
▁mířil	-11.3848
▁nekončí	-11.3848
▁válkou	-11.3848
▁simon	-11.3849
▁arch	-11.385
▁vládne	-11.3851
lice	-11.3852
▁komunikační	-11.3853
▁dostupný	-11.3855
elů	-11.3856
ther	-11.3857
▁potýká	-11.386
spí	-11.386
▁připraveno	-11.3862
išť	-11.3863
▁kritika	-11.3864
▁reklama	-11.3864
cům	-11.3865
▁vlasů	-11.3868
▁provedli	-11.387
▁merkelová	-11.3871
▁posílit	-11.3871
▁udržovat	-11.3871
▁vážná	-11.3871
▁komunismu	-11.3875
hrát	-11.3877
▁náladu	-11.3877
oko	-11.3877
rp	-11.3878
▁daném	-11.3884
▁kas	-11.3884
▁sněžení	-11.3885
▁příbuzní	-11.3885
▁cestovat	-11.3888
▁přehrady	-11.3889
▁dobách	-11.3891
lib	-11.3892
▁chorob	-11.3892
jíždějí	-11.3893
▁horských	-11.3893
▁hlášení	-11.3893
ari	-11.3895
▁zvěř	-11.3898
▁kamarádi	-11.3899
izované	-11.3899
valy	-11.3899
▁realizovat	-11.3899
▁psali	-11.3902
▁točí	-11.3902
▁fal	-11.3903
▁umístil	-11.3904
▁prodalo	-11.3905
▁aero	-11.3905
íci	-11.3908
▁novinku	-11.391
▁starém	-11.3912
▁důvěry	-11.3912
▁obrázků	-11.3912
▁útočníci	-11.3912
▁zničit	-11.3913
cka	-11.3914
oz	-11.3914
ong	-11.3915
▁lídra	-11.3923
▁čerstvě	-11.3924
▁turecké	-11.3925
▁studijní	-11.3926
ins	-11.3927
▁řece	-11.3929
▁doprovodu	-11.3932
▁lang	-11.3933
▁člověkem	-11.3934
▁nepočítá	-11.3935
▁filmový	-11.3937
▁matce	-11.3938
▁tabulce	-11.394
▁ráz	-11.394
ečné	-11.394
▁kro	-11.394
▁životopis	-11.3941
▁organismu	-11.3943
▁obsadil	-11.3946
▁konkrétním	-11.3946
▁vydělat	-11.3947
▁bývalí	-11.3947
▁spustit	-11.3948
▁kemp	-11.395
▁blízkém	-11.395
tahoval	-11.3952
▁vyloženě	-11.3953
▁útocích	-11.3953
▁autorka	-11.3954
▁základu	-11.3954
▁svátky	-11.3954
▁pěšky	-11.3954
▁problémech	-11.396
▁dařilo	-11.3963
▁vyhrožoval	-11.3963
▁zaznamenala	-11.3964
▁otevírá	-11.3965
▁zastupuje	-11.3966
▁stravování	-11.3967
▁export	-11.3967
▁dojmem	-11.3968
▁zásad	-11.3968
▁boha	-11.3969
▁pracující	-11.3969
▁nakupovat	-11.397
ářů	-11.3971
▁pracovnice	-11.3971
▁vyjm	-11.3972
▁naučil	-11.3973
▁nevěděli	-11.3973
▁hluboko	-11.3973
▁obsahovat	-11.3978
▁zády	-11.3978
▁lich	-11.3979
dává	-11.398
▁samotnou	-11.3982
▁ticho	-11.3983
▁nezávislý	-11.3984
▁stavbou	-11.3984
▁divit	-11.3984
▁získaly	-11.3985
▁přivedl	-11.3986
▁narozeniny	-11.3987
▁vlevo	-11.3987
hlu	-11.3989
▁heslo	-11.3989
▁symbolem	-11.399
▁řím	-11.3991
haj	-11.3992
▁hypoteční	-11.3992
mit	-11.3993
▁paříže	-11.3993
▁vicepremiér	-11.3994
▁polojasno	-11.3994
▁aktivisté	-11.3995
▁takovému	-11.3997
▁mladíka	-11.3997
▁sucho	-11.3997
▁předložil	-11.3998
▁eli	-11.3999
▁odborných	-11.4
▁ing	-11.4006
▁návštěvnost	-11.4007
▁dráze	-11.4008
▁náročná	-11.4008
▁předpověď	-11.4008
▁týrání	-11.4008
nikdy	-11.401
břez	-11.4012
nn	-11.4012
může	-11.4013
▁chodili	-11.4013
▁papíru	-11.4014
▁kapitál	-11.4016
▁vzhledu	-11.4016
gas	-11.4018
▁stáli	-11.4018
▁stoprocentní	-11.4019
▁vizuální	-11.4022
▁dluží	-11.4022
▁soboty	-11.4023
tom	-11.4023
▁schválili	-11.4025
▁reforma	-11.4026
pie	-11.4026
▁tyč	-11.4027
▁domácnost	-11.4028
duk	-11.4029
▁přesvědčeni	-11.4029
▁vývoz	-11.403
▁školení	-11.403
▁lži	-11.4032
▁netuší	-11.4035
▁mirek	-11.4035
▁nejdelší	-11.4036
▁mysleli	-11.4037
▁jezdil	-11.4038
▁obvodní	-11.4039
stejně	-11.4039
takže	-11.404
▁vyžádal	-11.404
▁považoval	-11.4041
▁pošta	-11.4041
▁vyšetřovatelů	-11.4046
▁barack	-11.4049
dlo	-11.4049
▁navštíví	-11.405
▁smluvní	-11.405
▁silničáři	-11.405
▁vytváření	-11.4052
▁zlína	-11.4053
navíc	-11.4057
▁varují	-11.4057
▁dresu	-11.4059
▁dolaru	-11.4059
▁detailní	-11.4059
▁slabý	-11.4062
▁obdiv	-11.4063
▁kriminality	-11.4064
▁pixelů	-11.4064
▁čekalo	-11.4064
▁menším	-11.4064
▁levněji	-11.4064
▁analytiků	-11.4064
▁drát	-11.4065
▁lásku	-11.4065
▁přestane	-11.4066
▁hut	-11.4068
▁otřes	-11.4068
▁ikon	-11.407
▁vybírá	-11.4071
▁odvezli	-11.4072
▁začínající	-11.4074
▁podnikatelské	-11.4074
kryl	-11.4075
▁jistou	-11.4075
ácké	-11.4076
▁lom	-11.4077
▁inflace	-11.4077
▁finančním	-11.4079
▁komentáře	-11.408
▁rodič	-11.408
cti	-11.408
▁chu	-11.4085
▁civilistů	-11.4086
▁úroky	-11.4088
▁mak	-11.4089
▁životním	-11.409
▁řecké	-11.4091
▁poloviční	-11.4091
▁sparty	-11.4092
rol	-11.4092
▁bomby	-11.4092
ory	-11.4092
▁věřící	-11.4094
▁tvrdý	-11.4095
▁vědecké	-11.4095
▁otevřela	-11.4096
▁výhoda	-11.4097
víz	-11.4098
for	-11.4099
▁noví	-11.4099
ministr	-11.41
▁nájemné	-11.4101
▁trendy	-11.4101
▁debata	-11.4102
▁gabriela	-11.4104
▁havárii	-11.4105
▁odvahu	-11.4105
▁emisí	-11.4105
▁transakce	-11.4105
▁rozvoji	-11.4108
▁kandidáti	-11.4108
▁překvapením	-11.4109
▁středně	-11.4109
well	-11.4111
▁nejlepšího	-11.4113
▁wall	-11.4113
▁odpovídat	-11.4114
vát	-11.4115
rid	-11.4116
▁pec	-11.4119
▁obžaloba	-11.4119
těsn	-11.412
▁nafty	-11.412
▁informuje	-11.4122
▁šach	-11.4123
▁přidáme	-11.4124
▁vzadu	-11.4125
pot	-11.4128
ovité	-11.413
▁dámy	-11.413
▁sněmovní	-11.4131
▁odstartoval	-11.4132
▁dovolí	-11.4132
▁novelu	-11.4134
▁přítelem	-11.4135
▁ujal	-11.4135
▁nejoblíbenější	-11.4137
▁židovské	-11.4138
▁tichý	-11.4139
zim	-11.414
▁nezávislost	-11.414
▁zasažen	-11.4142
vede	-11.4142
▁konala	-11.4143
▁zvuku	-11.4144
▁opačném	-11.4145
▁jazyky	-11.4146
▁kanalizace	-11.4147
▁las	-11.4151
▁ab	-11.4152
▁experiment	-11.4153
anti	-11.4159
▁pokračovala	-11.4163
kovy	-11.4164
▁tý	-11.4164
▁dlouholetý	-11.4164
rb	-11.4165
▁průjezd	-11.4169
▁úvod	-11.4171
▁rival	-11.4172
problém	-11.4173
▁potřebovali	-11.4174
▁nervy	-11.4174
▁sbírku	-11.4175
▁pákistán	-11.4176
▁slovní	-11.4176
▁gazy	-11.4177
▁sub	-11.4178
▁předchozího	-11.4178
▁prodejem	-11.4178
státní	-11.4178
▁trvající	-11.4183
sol	-11.4183
▁přírodních	-11.4184
▁centr	-11.4184
▁band	-11.4187
▁svatební	-11.4187
▁pohodlné	-11.4189
▁posudku	-11.4189
▁potrubí	-11.4189
mos	-11.4191
spir	-11.4191
▁vrchního	-11.4194
▁běžná	-11.4195
▁egypt	-11.4196
▁blízkého	-11.4199
▁určení	-11.4199
▁vycházejí	-11.42
rtu	-11.4201
▁chyběl	-11.4203
▁buněk	-11.4203
▁srážek	-11.4203
nů	-11.4204
▁blažek	-11.4204
▁představen	-11.4205
▁dialog	-11.4205
cími	-11.4207
ičkou	-11.4209
▁upravené	-11.421
▁svahu	-11.4213
▁mýt	-11.4214
▁zpětně	-11.4215
▁uvolnění	-11.4215
▁vezme	-11.4216
cena	-11.4216
▁vyhlášky	-11.4217
▁prvek	-11.4218
▁koleje	-11.4218
▁jádro	-11.4218
▁polohách	-11.4219
sadí	-11.4219
čat	-11.422
▁prodavač	-11.422
▁past	-11.4223
▁romské	-11.4224
elných	-11.4224
▁šum	-11.4224
▁magazín	-11.4225
▁sal	-11.4229
met	-11.423
▁prostranství	-11.4231
kládat	-11.4232
▁hudebních	-11.4233
▁natočil	-11.4233
nesou	-11.4233
▁jakkoli	-11.4234
▁zásadě	-11.4236
▁prázdniny	-11.4239
▁čtvrtinu	-11.4243
▁provozovatelé	-11.4243
▁konají	-11.4249
▁přihlásit	-11.425
▁rány	-11.425
▁univerzální	-11.4252
věř	-11.4253
▁kancléř	-11.4253
▁internetový	-11.4255
▁dech	-11.4256
▁niž	-11.4257
▁šk	-11.4258
▁kre	-11.4258
▁švýcarské	-11.4259
▁souboje	-11.4259
▁křižovatce	-11.426
▁kondici	-11.426
▁primárně	-11.426
▁generací	-11.426
▁demonstraci	-11.426
▁sestavě	-11.426
ministerstvo	-11.426
▁gang	-11.4261
▁vrácení	-11.4261
▁posouzení	-11.4261
▁postavila	-11.4263
▁vyjel	-11.4266
▁smrk	-11.4266
▁celkovém	-11.4266
▁cituje	-11.4267
▁putoval	-11.4268
▁suroviny	-11.4268
▁seniorů	-11.4269
úr	-11.4272
▁vojsk	-11.4273
▁styk	-11.4274
▁tragédii	-11.4274
▁koupání	-11.4274
▁schopné	-11.4276
▁advokátní	-11.4276
▁nejvýše	-11.4276
▁libereckém	-11.4277
▁přijme	-11.4281
átoři	-11.4282
▁vítězný	-11.4284
izují	-11.4287
▁stresu	-11.4287
vič	-11.4287
▁klára	-11.4288
▁viceprezident	-11.4288
▁nádor	-11.4288
▁postele	-11.4289
▁řsd	-11.4289
▁přísnější	-11.4289
▁chodce	-11.429
▁nastoupí	-11.429
▁přečetl	-11.429
▁textů	-11.429
▁přibylo	-11.429
▁pamětí	-11.4291
▁sur	-11.4291
▁zimy	-11.4291
▁gril	-11.4291
▁způsobené	-11.4293
ria	-11.4297
nevím	-11.4298
ložené	-11.4299
dc	-11.43
▁obviněný	-11.43
▁nesouhlasil	-11.4301
▁vzorky	-11.4301
▁středy	-11.4301
ložil	-11.4301
▁bakterie	-11.4302
▁nábřeží	-11.4302
▁přiblížit	-11.4302
▁zúčastní	-11.4302
▁tvrdit	-11.4302
▁debatu	-11.4302
▁sjezdovky	-11.4302
▁částkou	-11.4304
▁dominantní	-11.431
▁nejzajímavější	-11.4311
ovač	-11.4313
▁vítkovice	-11.4313
if	-11.4313
▁nejkrásnější	-11.4314
▁hit	-11.4316
▁seznámit	-11.4316
▁křesla	-11.4317
leté	-11.4319
▁obnoven	-11.432
▁bagdádu	-11.432
▁skandál	-11.4321
▁slovenského	-11.4321
▁kompromis	-11.4323
▁rakouské	-11.4323
▁hon	-11.4324
▁světem	-11.4326
▁hotový	-11.4327
▁sokolov	-11.4329
ef	-11.4329
▁dramatické	-11.433
▁jas	-11.433
▁vnímat	-11.4331
▁španělska	-11.4331
▁pamatuje	-11.4333
ško	-11.4334
▁udržení	-11.4336
▁volá	-11.4336
▁španělské	-11.4337
▁prezentace	-11.4337
šlap	-11.4338
▁skládá	-11.4339
▁nápis	-11.4342
lia	-11.4344
▁ekonomických	-11.4345
▁níže	-11.4345
▁krajan	-11.4346
▁nádherné	-11.4348
▁dosti	-11.4349
jede	-11.4352
nar	-11.4353
čkové	-11.4356
▁trub	-11.4357
▁přátelství	-11.436
▁info	-11.4363
▁odmítal	-11.4366
jas	-11.4366
▁špatného	-11.4368
▁měsícem	-11.4368
▁nastane	-11.4369
▁plic	-11.4371
▁činit	-11.4371
ivní	-11.4372
▁zaujal	-11.4373
▁dozví	-11.4373
loup	-11.4373
▁elektřinu	-11.4373
▁neuvěřitelně	-11.4373
▁příspěvků	-11.4373
▁divák	-11.4375
▁obal	-11.4376
▁recenze	-11.4381
bohužel	-11.4381
▁zvládl	-11.4382
pisovat	-11.4383
▁ot	-11.4384
▁lhot	-11.4384
cca	-11.4385
▁jakého	-11.4386
▁nádherný	-11.4387
▁nobelov	-11.4388
▁rolí	-11.4388
▁ekonomickou	-11.4388
▁graf	-11.4391
▁právníci	-11.4392
bíd	-11.4393
kul	-11.4393
být	-11.4394
▁opilý	-11.4394
▁vejde	-11.44
▁základně	-11.44
▁vybrán	-11.44
sem	-11.4401
▁kaddáfího	-11.4402
měsíční	-11.4403
▁červen	-11.4404
▁ostrý	-11.4404
▁mírové	-11.4409
▁bronz	-11.4409
▁zvyk	-11.441
▁grafika	-11.441
▁králov	-11.441
ava	-11.4411
▁sovětského	-11.4413
▁hrubého	-11.4415
▁beru	-11.4415
▁odboráři	-11.4416
tk	-11.4416
pf	-11.4417
▁pouta	-11.4419
kovat	-11.4421
▁příchod	-11.4421
teri	-11.4422
▁voze	-11.4425
▁fen	-11.4427
▁zaměřené	-11.4428
▁úředník	-11.4429
▁okraj	-11.4429
▁analytici	-11.4431
▁vyhověl	-11.4431
▁formální	-11.4431
nést	-11.4432
▁zavražděn	-11.4432
▁ústecký	-11.4432
▁gólů	-11.4434
▁tuzemských	-11.4434
▁útokem	-11.4443
▁kritéria	-11.4445
▁označován	-11.4445
▁skvělá	-11.4445
▁příroda	-11.4445
▁zábava	-11.4446
bon	-11.4446
nič	-11.4447
▁servisu	-11.4448
▁názorů	-11.4448
▁rubrika	-11.4452
▁podrobně	-11.4456
▁propadl	-11.4457
▁zúčastnilo	-11.4457
ini	-11.4457
▁předsednictví	-11.4459
▁přehrávače	-11.4463
▁čd	-11.4463
suv	-11.4463
▁přestupek	-11.4464
áš	-11.4465
děj	-11.4467
▁příchozí	-11.4472
▁připomínající	-11.4473
▁předvedl	-11.4473
▁znalost	-11.4474
▁octavia	-11.4474
▁povědomí	-11.4474
▁topení	-11.4474
▁výjimečné	-11.4474
▁vizi	-11.4475
▁andreje	-11.4477
▁fungující	-11.4479
▁gum	-11.4479
▁oblé	-11.4479
▁hotelů	-11.448
yl	-11.448
▁cy	-11.4481
neu	-11.4482
ány	-11.4483
▁pokoušel	-11.4484
▁dostatečný	-11.4487
▁rekreační	-11.4488
▁londýn	-11.4488
▁fotbalu	-11.4488
▁austrálii	-11.4488
▁orgán	-11.4488
ačtyřicetiletý	-11.449
▁povolil	-11.4493
důvod	-11.4493
▁sady	-11.4495
▁záchranného	-11.4497
▁letounů	-11.4498
▁místopředsedy	-11.4503
▁křesel	-11.4503
▁správná	-11.4503
▁líbit	-11.4503
▁ekologické	-11.4504
▁dotační	-11.4505
ras	-11.4507
▁labe	-11.4507
▁lidského	-11.4507
stoupil	-11.4507
▁jídel	-11.4512
▁zábavy	-11.4514
▁vystupuje	-11.4514
eme	-11.4515
▁metal	-11.4517
▁mudr	-11.4517
▁manuální	-11.4517
▁unesco	-11.4517
▁jihlavy	-11.4517
kt	-11.4517
▁usilovat	-11.4517
▁absolvovat	-11.4518
▁myšlenku	-11.4518
▁zajímají	-11.4518
▁restauracích	-11.4519
▁znalci	-11.4521
▁svato	-11.4521
xi	-11.4525
▁rozkaz	-11.4526
tým	-11.4528
▁historického	-11.4531
▁soužití	-11.4532
▁klasická	-11.4532
▁sdílí	-11.4532
▁někým	-11.4533
▁emise	-11.4533
▁ludvík	-11.4534
▁ústeckého	-11.4535
celý	-11.4535
▁poplatku	-11.4535
▁telefonem	-11.4537
▁nejvyšších	-11.4539
ting	-11.4539
▁velení	-11.4541
▁nápor	-11.4541
▁milión	-11.4541
pravd	-11.4543
▁čert	-11.4544
▁křižovatky	-11.4546
▁nejvhodnější	-11.4546
▁peake	-11.4546
▁knihovna	-11.4547
▁ony	-11.4547
▁připomenout	-11.4547
▁anglický	-11.4547
▁prince	-11.4548
▁ohlásil	-11.4549
▁pásma	-11.4549
▁světu	-11.4549
▁provede	-11.455
▁patent	-11.4553
▁dodá	-11.4555
▁jeřáb	-11.4556
▁stranami	-11.4558
▁korea	-11.4558
rovná	-11.4558
▁če	-11.4558
nikdo	-11.4559
▁jackson	-11.456
▁luk	-11.456
▁poškodit	-11.4561
▁radikálů	-11.4561
▁svátek	-11.4563
▁padla	-11.4564
▁vydán	-11.4567
▁volném	-11.4567
▁oprávnění	-11.4569
ovna	-11.457
chyb	-11.457
▁ruskou	-11.4574
▁délku	-11.4575
▁moravské	-11.4577
skočí	-11.4579
▁novinách	-11.458
elo	-11.458
▁krizové	-11.458
▁vyhlásil	-11.4581
▁prozradila	-11.4581
▁poskytnutí	-11.4582
▁hovoru	-11.4582
▁pákistánu	-11.4582
▁danou	-11.4585
▁zpěv	-11.4587
▁visí	-11.4589
▁splácet	-11.459
▁poznal	-11.4591
▁suché	-11.4591
▁zeptat	-11.4592
▁image	-11.4592
▁dějinách	-11.4593
▁pachatelé	-11.4593
▁nedělal	-11.4594
lus	-11.4596
can	-11.4599
▁bern	-11.4601
▁vietnam	-11.4602
▁koncern	-11.4602
▁plát	-11.4605
fon	-11.4607
▁jasnou	-11.4609
▁jiho	-11.4609
nili	-11.4611
▁rol	-11.4611
▁superb	-11.4611
▁zákonu	-11.4612
▁severo	-11.4612
▁čs	-11.4613
▁špičkové	-11.4614
▁zastřelil	-11.4616
▁nejvyšším	-11.4616
členné	-11.4617
▁all	-11.4617
▁převzala	-11.4617
▁kardinál	-11.4619
▁převzít	-11.4619
věří	-11.4623
▁branek	-11.4624
▁základy	-11.4625
▁nestane	-11.4628
▁bed	-11.4629
▁čínský	-11.4629
▁papíry	-11.463
▁nedostatkem	-11.4634
▁ptačí	-11.4634
▁demisi	-11.4634
▁hrací	-11.4636
▁japonsko	-11.4637
▁dáno	-11.4638
ht	-11.4638
▁hájek	-11.4638
▁klesly	-11.4638
▁řep	-11.4639
▁národních	-11.464
vedl	-11.464
▁pokusů	-11.4642
▁barták	-11.4643
▁sedmé	-11.4644
▁big	-11.4644
▁použité	-11.4645
skočit	-11.4647
zákon	-11.4648
▁vyloučen	-11.4649
▁nm	-11.465
gram	-11.4651
▁přiblížila	-11.4653
▁budovat	-11.4654
▁muzikál	-11.4658
▁zdůraznila	-11.4658
člen	-11.4658
řad	-11.4659
▁fenomén	-11.466
▁bohatý	-11.466
▁chirurg	-11.4661
▁kolegyně	-11.4664
vit	-11.4664
▁linie	-11.4664
hodně	-11.4665
▁příjemný	-11.4665
▁přispěl	-11.4665
▁těžkou	-11.4668
vlád	-11.4669
▁nabízen	-11.4669
▁kraus	-11.4671
▁zataženo	-11.4672
▁kouř	-11.4673
▁lad	-11.4675
▁vítězné	-11.4675
▁touží	-11.4676
▁učitelka	-11.4676
▁dostupná	-11.4678
▁drobných	-11.4679
▁anketě	-11.4679
▁zlo	-11.4679
▁čtvrtina	-11.4681
▁junior	-11.4681
▁veřejném	-11.4682
▁mnohokrát	-11.4684
▁výstavní	-11.4684
get	-11.4685
▁cia	-11.4687
▁složil	-11.4689
pri	-11.4689
▁vedoucího	-11.469
▁skladu	-11.4693
▁spojenci	-11.4695
▁koncernu	-11.4699
io	-11.47
▁kytar	-11.4702
▁stály	-11.4703
rez	-11.4704
▁hasičské	-11.4705
▁vzoru	-11.4705
milionové	-11.4705
▁škromach	-11.4708
▁citlivé	-11.4708
síla	-11.4708
▁dokonalé	-11.4708
▁dušan	-11.4709
▁obdrží	-11.4709
▁popisoval	-11.471
▁malin	-11.4711
plo	-11.4712
aw	-11.4713
▁režie	-11.472
▁přerušení	-11.4721
▁mimořádný	-11.4722
▁konkrétního	-11.4722
▁nejmodernější	-11.4722
▁velikonoční	-11.4722
▁úspěšná	-11.4722
▁prosazovat	-11.4722
▁anglie	-11.4722
▁rychlá	-11.4722
▁nenapadlo	-11.4723
▁beneš	-11.4723
▁cizině	-11.4724
▁příčku	-11.4724
▁modelem	-11.4726
▁komentář	-11.4726
▁řešil	-11.473
trap	-11.4731
▁veterán	-11.4731
kvap	-11.4731
▁automat	-11.4732
▁stížností	-11.4733
psat	-11.4733
▁zbraněmi	-11.4734
nat	-11.4734
▁umístěn	-11.4736
▁infekce	-11.4737
▁vyhláška	-11.4737
▁odešli	-11.4738
sr	-11.4738
sob	-11.4738
bek	-11.4738
▁videu	-11.4738
▁unijní	-11.4739
▁standardně	-11.474
▁zlínský	-11.474
▁objektiv	-11.4741
▁obvinili	-11.4742
dis	-11.4742
▁osmdesátých	-11.4743
▁regionech	-11.4744
▁netýká	-11.4744
▁napojení	-11.475
list	-11.475
▁jdu	-11.4752
▁rychlostní	-11.4752
▁důležitým	-11.4752
▁hrozbu	-11.4752
▁vídni	-11.4752
▁zařadit	-11.4752
mlouva	-11.4753
org	-11.4754
ladí	-11.4756
▁objeven	-11.4757
▁asie	-11.4758
ovanými	-11.4759
lování	-11.476
▁uzavře	-11.476
▁architektů	-11.4763
rav	-11.4765
▁pustili	-11.4766
▁odhalování	-11.4767
▁objednat	-11.4767
▁střeše	-11.4767
▁tragické	-11.4767
▁hotovost	-11.4768
▁fakticky	-11.4769
kel	-11.4769
▁prodala	-11.477
▁zákroku	-11.4771
někteří	-11.4771
▁manželů	-11.4771
dé	-11.4774
▁invest	-11.4774
▁zvolí	-11.4776
▁vyžadují	-11.4776
▁živý	-11.4776
▁dorazili	-11.4779
▁pokrytí	-11.4781
palcový	-11.4781
▁přislíbil	-11.4782
▁cenách	-11.4782
tku	-11.4782
▁řeknu	-11.4783
▁motocykl	-11.4784
▁usmívá	-11.4784
▁černých	-11.4784
▁miluje	-11.4784
▁brad	-11.4785
▁padá	-11.4785
▁navázat	-11.4787
▁poslala	-11.4788
▁jenomže	-11.479
▁ráj	-11.4792
▁směřuje	-11.4793
▁značný	-11.4793
▁výjezd	-11.4794
▁písemné	-11.4796
▁demokrat	-11.4797
▁bohatství	-11.4797
▁hydrometeorolog	-11.4797
▁možnou	-11.48
▁vlně	-11.4801
▁investora	-11.4801
▁předali	-11.4801
náší	-11.4802
▁jedoucí	-11.4805
nám	-11.4807
▁reálně	-11.4808
▁orl	-11.4809
▁taktéž	-11.4812
▁tvrdili	-11.4812
▁podává	-11.4815
▁úraz	-11.4816
▁testovací	-11.4821
▁mobilním	-11.4822
▁cizího	-11.4825
▁hotely	-11.4826
▁dokáží	-11.4827
▁pozorovat	-11.4832
▁mandátu	-11.4834
▁xbox	-11.4838
▁munice	-11.4838
▁tarif	-11.4839
▁reformu	-11.4841
▁soukup	-11.4842
▁značení	-11.4842
▁grant	-11.4842
▁oslovit	-11.4842
▁českému	-11.4842
▁sousedů	-11.4842
▁koše	-11.4844
▁vězně	-11.4844
▁cizích	-11.4846
myslel	-11.4846
▁odklad	-11.4846
▁zaměstnává	-11.4847
▁trestnou	-11.4847
čnou	-11.4849
▁potok	-11.485
▁rop	-11.4854
líb	-11.4855
▁obyčejné	-11.4855
▁poslouchat	-11.4856
field	-11.4856
▁příprav	-11.4857
lezl	-11.4859
▁vstoupí	-11.4859
▁otci	-11.4861
▁lyže	-11.4864
▁dostávat	-11.4865
uf	-11.4866
obraz	-11.4867
▁irák	-11.4868
▁socha	-11.4868
tyto	-11.4868
▁oční	-11.4869
▁krásy	-11.4869
▁nástrojů	-11.487
▁kamion	-11.4871
▁ochoten	-11.4871
▁regulace	-11.4871
▁regulační	-11.4871
▁ručení	-11.4872
▁kočí	-11.4873
▁zařadil	-11.4874
▁asii	-11.4874
▁mandátů	-11.4876
▁intimní	-11.4876
▁drahá	-11.4878
▁průzkumy	-11.4879
bít	-11.4883
▁pohotovosti	-11.4884
▁necelý	-11.4885
▁green	-11.4886
▁up	-11.4887
nila	-11.4887
▁obyvatelstva	-11.4887
▁slovan	-11.4889
▁páry	-11.4889
ečka	-11.4893
▁dřívějších	-11.4895
▁nenávist	-11.4896
lák	-11.4897
ide	-11.4899
▁brož	-11.4899
▁prokurátor	-11.4902
▁uživatelům	-11.4903
▁jihočeský	-11.4904
▁nezávislosti	-11.491
▁střecha	-11.4911
▁wc	-11.4912
▁výtah	-11.4913
▁šim	-11.4914
▁dohledem	-11.4914
smích	-11.4914
▁sumu	-11.4914
▁platil	-11.4915
▁nastat	-11.4916
▁dienstbier	-11.4917
▁ležet	-11.4917
jednou	-11.4917
▁pozic	-11.4918
dech	-11.4918
▁biskup	-11.4921
▁nápoj	-11.4921
▁jiřím	-11.4921
▁mobile	-11.4922
▁ev	-11.4922
▁důchodců	-11.4923
▁výšku	-11.4924
▁kotel	-11.4925
lej	-11.4925
▁madrid	-11.4927
hodí	-11.4929
▁nesměl	-11.4932
▁slon	-11.4932
▁palubní	-11.4932
▁spolehlivě	-11.4932
▁blb	-11.4933
▁letošních	-11.4933
▁cyklo	-11.4934
▁gólu	-11.4934
▁přeprav	-11.4935
▁vysílá	-11.4937
▁ohrožen	-11.4937
ever	-11.4938
▁sester	-11.4938
mani	-11.4941
zon	-11.4942
▁faul	-11.4942
▁summit	-11.4943
▁typický	-11.4944
▁personálu	-11.4944
▁mail	-11.4946
cházejí	-11.4947
▁dodávek	-11.4947
rny	-11.4948
▁souhlasu	-11.4948
▁studentům	-11.4949
▁hráčům	-11.4952
use	-11.4952
▁životnost	-11.4955
▁zvuky	-11.4958
jeli	-11.4959
▁vracejí	-11.4962
▁epizod	-11.4962
▁kratochvíl	-11.4962
▁okamžité	-11.4962
▁ovlivňovat	-11.4962
▁vycházet	-11.4962
▁vzácné	-11.4962
▁pohádky	-11.4962
▁hradiště	-11.4963
▁všeobecně	-11.4963
ativní	-11.4964
▁ozbrojených	-11.4965
▁přemysl	-11.4966
▁oskar	-11.4968
zin	-11.4969
▁náraz	-11.4969
lh	-11.497
▁zlatý	-11.4973
▁nepotřebuje	-11.4975
▁diskutovat	-11.4977
hnutí	-11.4979
▁zahájili	-11.4981
▁vyz	-11.4982
kč	-11.4983
zelen	-11.4983
enz	-11.4984
rud	-11.4985
▁mobily	-11.4987
▁zlé	-11.4987
▁alkoholem	-11.499
▁nemocné	-11.4991
ložíme	-11.4991
▁zprvu	-11.4992
▁komunity	-11.4993
▁sousedství	-11.4993
▁aktivitu	-11.4994
ske	-11.4994
▁zisky	-11.4994
▁přestala	-11.4998
▁vraždě	-11.4999
▁oficiálních	-11.5
ráz	-11.5
▁nedokázali	-11.5001
▁vlastníkem	-11.5001
▁staršího	-11.5003
▁podpisů	-11.5004
▁projet	-11.5004
▁doporučuji	-11.5004
▁zakoupit	-11.5008
▁stěžoval	-11.5008
▁otevřených	-11.5008
▁solární	-11.5008
▁kontroluje	-11.5009
▁dávku	-11.501
kart	-11.501
▁určeny	-11.5011
▁svaly	-11.5015
čili	-11.5016
▁hodil	-11.5018
▁požádali	-11.502
▁sav	-11.5022
šan	-11.5022
▁angličtině	-11.5023
▁chytrý	-11.5023
▁záplav	-11.5023
▁doplní	-11.5023
▁protestní	-11.5027
▁dějiny	-11.5028
toval	-11.5028
▁deště	-11.503
padesát	-11.5031
▁hel	-11.5032
táhnou	-11.5032
▁oznámili	-11.5032
▁stoupl	-11.5033
▁řídící	-11.5033
▁úřadě	-11.5034
▁technikou	-11.5034
▁guvernér	-11.5038
▁krádeží	-11.5038
▁uspět	-11.5039
▁úplatek	-11.5039
▁tudy	-11.504
▁barvou	-11.504
▁teroristických	-11.504
▁zapojen	-11.5041
danou	-11.5041
▁ghz	-11.5041
většina	-11.5044
▁okrese	-11.5045
▁světlé	-11.5048
hodné	-11.5048
▁hiv	-11.5048
▁nátlak	-11.505
▁make	-11.505
ator	-11.5052
▁rozhodoval	-11.5052
▁zóna	-11.5052
řez	-11.5053
▁odpůrců	-11.5053
▁včerejší	-11.5053
▁splátky	-11.5053
▁jisti	-11.5054
▁certifikát	-11.5054
▁množstvím	-11.5054
▁úspěchem	-11.5055
▁pevný	-11.5055
▁nouze	-11.5056
lehl	-11.5058
▁lhůta	-11.5061
třel	-11.5063
izační	-11.5063
tříd	-11.5066
max	-11.5067
▁united	-11.5069
▁postarat	-11.5069
šin	-11.5072
▁francouzská	-11.5072
▁terénní	-11.5073
▁dcer	-11.5077
▁olomoucké	-11.508
něné	-11.508
▁zásahy	-11.5081
běh	-11.5082
ologie	-11.5082
▁berlín	-11.5083
▁vltavy	-11.5084
▁porsche	-11.5084
dali	-11.5085
▁transport	-11.5085
▁odhalil	-11.5086
▁čínských	-11.5086
▁umělci	-11.5087
▁bůh	-11.5087
book	-11.5088
čar	-11.5089
▁konzerv	-11.509
▁zamířil	-11.5091
▁dozvěděla	-11.5094
▁pětkrát	-11.5094
zené	-11.5096
▁kdybyste	-11.5102
▁sestavy	-11.5102
▁románu	-11.5102
aři	-11.5103
▁ztrátě	-11.5104
▁institut	-11.5104
▁heger	-11.5105
▁dlouhodobý	-11.5106
ile	-11.5106
▁zprávou	-11.5107
▁dešti	-11.5108
▁posunul	-11.5109
▁příbuzných	-11.5109
hnul	-11.511
▁časově	-11.5111
▁pí	-11.5113
nská	-11.5113
▁blíž	-11.5113
hyb	-11.5115
místopředsedkyně	-11.5115
▁atmosféře	-11.5115
▁pozdní	-11.5116
▁švédsko	-11.5119
▁postupuje	-11.5122
▁alp	-11.5122
▁představoval	-11.5124
▁ztrátou	-11.5124
▁střelou	-11.5125
lidových	-11.5127
▁předčasně	-11.513
▁záchranky	-11.5131
metr	-11.5132
▁realita	-11.5134
ró	-11.5139
▁půli	-11.5141
▁sochař	-11.5143
▁zimních	-11.5144
▁srdci	-11.5146
▁houby	-11.5146
▁detailů	-11.5146
hrál	-11.5146
kdu	-11.5147
lková	-11.5148
▁rozměrů	-11.5148
▁anton	-11.5148
ink	-11.5148
▁prodejců	-11.5153
▁fer	-11.5153
inform	-11.5155
▁příjezd	-11.5156
lejší	-11.5158
pouštět	-11.5159
▁široká	-11.5161
▁informovali	-11.5161
▁profese	-11.5161
▁sáhnout	-11.5162
ičtější	-11.5163
▁náměstkyně	-11.5163
▁líbilo	-11.5164
▁rámec	-11.5166
▁tuny	-11.5167
▁adres	-11.5167
▁radi	-11.5168
dva	-11.5168
▁rozšířil	-11.5168
kovým	-11.5168
▁opel	-11.5168
▁šoku	-11.5169
nut	-11.517
▁kulturních	-11.5171
▁bojovníků	-11.5172
ráží	-11.5173
▁kamenné	-11.5173
▁zařízeních	-11.5175
▁dostaneme	-11.5175
▁horký	-11.5175
▁ep	-11.5176
▁pošle	-11.5176
soft	-11.5176
▁pozorování	-11.5177
▁traktor	-11.5177
▁monitor	-11.5178
▁pokračují	-11.5178
▁pech	-11.5178
▁palestinský	-11.518
▁zabití	-11.5183
▁kalendář	-11.5184
▁king	-11.5189
▁jižních	-11.5191
▁vstupem	-11.5191
▁těžby	-11.5192
die	-11.5193
▁ukrajina	-11.5194
▁ukrajinu	-11.5197
▁nebojí	-11.5198
▁odkazem	-11.5198
šla	-11.5199
ovci	-11.5199
▁císař	-11.5201
▁britové	-11.5202
stoupí	-11.5203
▁krymu	-11.5205
▁vězeňské	-11.5207
avě	-11.5207
▁nervózní	-11.5208
▁dpa	-11.5208
chod	-11.5209
▁stejných	-11.5211
▁geo	-11.5213
▁sedmdesátých	-11.5213
▁cyklu	-11.5214
▁případném	-11.5216
▁svěřila	-11.5216
▁romové	-11.5218
▁pokusit	-11.5218
▁menšin	-11.522
mluví	-11.5221
▁brusel	-11.5221
▁potvrdí	-11.5221
▁perfektně	-11.5223
▁zábradlí	-11.5223
▁cizince	-11.5226
▁nápisem	-11.5227
vého	-11.5228
dd	-11.5228
win	-11.5228
místo	-11.5229
▁hrubé	-11.5229
manová	-11.5231
▁počítačových	-11.5231
▁ankety	-11.5233
mně	-11.5234
▁poslouží	-11.5234
▁pozvání	-11.5234
▁sběratel	-11.5235
bíhá	-11.5237
▁ohrožuje	-11.5239
▁exploze	-11.5239
▁výlety	-11.5242
▁neznámé	-11.5242
některé	-11.5243
▁hlav	-11.5243
▁volat	-11.5244
▁kino	-11.5245
▁tras	-11.5246
▁zlínském	-11.5248
▁mistra	-11.5251
▁sekundu	-11.5253
tha	-11.5255
enský	-11.5255
▁mirka	-11.5255
▁kávy	-11.5256
▁specializované	-11.5257
společnost	-11.5257
▁evropském	-11.5258
▁úder	-11.5261
▁nálezu	-11.5262
▁policejním	-11.5264
▁týdenní	-11.5265
▁holding	-11.5268
▁světovém	-11.5268
▁hrozba	-11.527
▁mnohých	-11.527
▁způsobí	-11.527
▁pavilonu	-11.5271
▁kan	-11.5272
kos	-11.5272
▁muslimů	-11.5272
neme	-11.5272
▁letů	-11.5274
▁zařazení	-11.5275
bran	-11.5278
▁mojí	-11.5279
▁ocel	-11.528
bral	-11.5281
▁žánru	-11.5284
▁šéfredaktor	-11.5286
▁ukazoval	-11.5286
▁rozsáhlý	-11.5287
▁požadované	-11.5287
▁spojů	-11.5287
případ	-11.5288
▁prvé	-11.5289
▁očekáváme	-11.5291
▁předběžné	-11.5293
▁tendru	-11.5294
▁používal	-11.5294
ies	-11.5294
▁králík	-11.5295
▁sejít	-11.5296
▁liberální	-11.5297
▁schůze	-11.5297
▁organismus	-11.5298
jar	-11.5299
start	-11.5299
▁veřejná	-11.53
▁zakončil	-11.5301
▁ekonomická	-11.5303
▁neúspěšně	-11.5303
▁mj	-11.5303
▁paušál	-11.5303
box	-11.5307
eru	-11.5307
▁oceán	-11.5308
▁hygienické	-11.5308
čkám	-11.5309
▁gre	-11.5311
▁neudělá	-11.5312
▁brambory	-11.5312
▁stanoví	-11.5312
▁dostál	-11.5312
▁doklad	-11.5312
▁tuku	-11.5315
▁másla	-11.5316
▁rozšíří	-11.5317
komu	-11.5318
▁zhodnotil	-11.5318
▁středočeský	-11.5318
▁realizace	-11.5318
▁postu	-11.5319
▁vyprávěl	-11.5319
▁ohradil	-11.532
▁gigant	-11.5321
▁hřeben	-11.5321
▁celkových	-11.5321
▁šárka	-11.5321
▁potřebnou	-11.5322
▁vize	-11.5322
ens	-11.5323
▁pořídil	-11.5324
▁barevných	-11.5324
nášet	-11.5327
▁organizátorů	-11.5328
▁obviněných	-11.5328
▁human	-11.5329
▁proběhlo	-11.5329
▁rejstříku	-11.5329
▁tuzemské	-11.5331
▁požádá	-11.5331
▁pohledávky	-11.5333
▁zajímavější	-11.5333
ell	-11.5335
▁obyvateli	-11.5335
óz	-11.5336
▁čerpat	-11.5337
of	-11.534
hrával	-11.534
▁koření	-11.5344
škrt	-11.5344
▁záznamů	-11.5347
▁zeleně	-11.5347
▁komplikuje	-11.5349
▁přijímací	-11.5349
▁zeleninu	-11.5349
registr	-11.5349
▁soustředění	-11.5349
▁vystřídal	-11.5349
▁arab	-11.535
▁lesích	-11.5352
▁snahou	-11.5352
▁marcel	-11.5353
▁německém	-11.5354
▁diplom	-11.5357
nesl	-11.5358
▁regionů	-11.536
▁servír	-11.536
▁politikou	-11.5362
▁bratři	-11.5365
▁vaším	-11.5368
▁střelu	-11.5368
▁nepřímo	-11.5368
▁cele	-11.5369
ráže	-11.5369
▁maďarské	-11.5369
▁chráněn	-11.5371
▁pláže	-11.5372
cit	-11.5374
váží	-11.5375
chtěli	-11.5377
▁pozná	-11.5379
▁neúspěch	-11.538
▁účinek	-11.538
▁komisí	-11.538
▁zaplatili	-11.538
▁přejít	-11.5381
▁bart	-11.5382
▁obžalovaní	-11.5383
▁technik	-11.5384
▁natáčel	-11.5384
▁moravskoslezské	-11.5384
▁jaderný	-11.5385
zet	-11.5385
▁nemluví	-11.5386
▁land	-11.5388
▁posílil	-11.5388
▁šedesátých	-11.5388
▁náhrady	-11.5389
▁vydržel	-11.5389
▁samsungu	-11.5395
▁firmách	-11.5396
▁kávu	-11.5396
▁nohama	-11.5397
▁pohřeb	-11.5397
▁sporů	-11.54
▁hračky	-11.5401
▁blanka	-11.5406
▁vlastníků	-11.5408
▁zubní	-11.541
rgen	-11.5411
▁něčemu	-11.5411
▁problematické	-11.5412
▁příslušenství	-11.5412
▁následků	-11.5412
▁mužstvo	-11.5413
▁pokusili	-11.5415
▁záloh	-11.5418
▁krb	-11.5419
▁cup	-11.5419
▁poškodil	-11.5419
tál	-11.542
dám	-11.542
▁stříbrné	-11.5421
▁svaté	-11.5425
šetřil	-11.5426
▁integrované	-11.5428
itelné	-11.5428
▁chutí	-11.543
▁pokladny	-11.543
▁padlo	-11.5431
▁sekce	-11.5433
▁sladké	-11.5435
▁zlínského	-11.5436
nika	-11.5437
▁květiny	-11.5439
▁smith	-11.544
▁ateliér	-11.5441
▁myslela	-11.5442
dával	-11.5443
▁snižovat	-11.5444
▁stezka	-11.5444
▁tabulka	-11.5444
▁pořadatel	-11.5445
▁ochotn	-11.5445
▁jakými	-11.5447
▁sousedním	-11.5449
▁výraznou	-11.5449
nin	-11.545
▁dosah	-11.5451
nského	-11.5452
▁příběhů	-11.5452
▁zasloužil	-11.5453
▁připravoval	-11.5455
▁ddr	-11.5455
▁dluhopisy	-11.5456
▁zveřejněné	-11.5457
▁misí	-11.5457
▁televizním	-11.5458
▁knížky	-11.5459
▁falešné	-11.5459
▁eduard	-11.546
▁absence	-11.546
▁švédsku	-11.546
▁hospodářský	-11.5462
▁vystoupit	-11.5464
▁kontaktů	-11.5464
▁senzor	-11.5466
▁časopise	-11.5467
▁modul	-11.5469
▁řek	-11.547
▁poslanecký	-11.547
▁stíhán	-11.5472
▁dopisu	-11.5473
▁nějakém	-11.5474
▁natož	-11.5474
▁civilizace	-11.5475
▁střed	-11.5477
▁střílet	-11.5478
▁epi	-11.5479
▁pochodu	-11.5479
▁chlapců	-11.5479
držel	-11.5481
▁pacientům	-11.5483
▁odborná	-11.5485
▁podivné	-11.5485
▁prachu	-11.5486
▁setu	-11.5486
▁taliban	-11.5489
▁kvalitních	-11.5489
▁vozovky	-11.5491
izací	-11.5492
systém	-11.5492
▁samostatný	-11.5493
▁tlačí	-11.5493
▁popsat	-11.5494
▁mírné	-11.5495
▁benešov	-11.5495
▁zaslal	-11.5496
▁karlovarský	-11.5496
▁stahování	-11.5497
▁tan	-11.5498
ary	-11.5499
▁zachránil	-11.5499
▁umělce	-11.55
kri	-11.55
▁bytové	-11.5501
▁přivítal	-11.5504
▁dostání	-11.5505
▁dodavatelů	-11.5506
▁johnson	-11.5506
▁dostatečnou	-11.5507
▁prevenci	-11.5507
▁hlídat	-11.5507
▁obraně	-11.5507
▁modernizace	-11.5508
▁profesí	-11.5509
▁spekuluje	-11.5509
noc	-11.5509
▁dodávají	-11.5512
▁trávník	-11.5513
▁pronesl	-11.5513
nera	-11.5514
▁tisíců	-11.5515
▁horák	-11.5517
cion	-11.5518
dži	-11.5518
▁výměny	-11.5518
▁leteckých	-11.5523
▁evidence	-11.5523
▁hezký	-11.5523
▁obdobný	-11.5523
▁zmiňuje	-11.5524
káže	-11.5524
▁part	-11.5525
▁pohraniční	-11.5526
vní	-11.5526
▁nemluvil	-11.5528
▁stanou	-11.5529
▁výbavu	-11.5529
▁kremlu	-11.553
▁odehrála	-11.5531
▁krádež	-11.5533
▁žižkov	-11.5535
▁slot	-11.5535
▁kamiony	-11.5536
▁spojená	-11.5537
▁plod	-11.5537
▁učil	-11.5537
▁nemusejí	-11.5539
▁zmiňované	-11.5539
▁schopná	-11.554
▁prostředek	-11.554
▁postavené	-11.554
čů	-11.554
▁nádobí	-11.5541
▁klidné	-11.5543
▁panely	-11.5545
▁čelil	-11.5546
▁chris	-11.5547
▁prokop	-11.5547
▁zkouší	-11.5548
▁připravované	-11.5548
▁souboji	-11.555
old	-11.555
▁provozování	-11.5551
pala	-11.5551
▁beroun	-11.5552
▁vydavatel	-11.5553
far	-11.5555
▁archivu	-11.5555
▁guardian	-11.5556
▁československu	-11.5556
▁představiteli	-11.5556
▁nevhodné	-11.5556
▁sálu	-11.5558
▁růžové	-11.5558
▁historický	-11.556
▁kru	-11.5561
pál	-11.5562
▁lup	-11.5562
▁tendr	-11.5562
▁katastru	-11.5564
▁němcová	-11.5564
spal	-11.5565
▁polský	-11.5565
▁jeli	-11.5567
▁uměl	-11.5567
▁kolena	-11.5567
lova	-11.5568
▁znáte	-11.5568
▁uvedeno	-11.5568
▁švýcarsko	-11.5569
▁obchodník	-11.557
▁čtvrtiny	-11.5572
▁kamerou	-11.5572
▁zabývají	-11.5572
▁kořen	-11.5574
▁anglické	-11.5575
▁věřitelů	-11.5575
▁nezávislých	-11.5575
▁vypovídat	-11.5576
avé	-11.5576
vis	-11.5576
▁jam	-11.5577
▁návštěvník	-11.5577
▁některého	-11.5577
ité	-11.5577
▁kritici	-11.5578
▁úzké	-11.5578
▁máslo	-11.5579
vice	-11.5579
non	-11.558
▁odráží	-11.558
▁třídu	-11.5581
▁jihovýchodní	-11.5581
▁stanovené	-11.5582
▁tipy	-11.5582
▁hlasem	-11.5582
táhne	-11.5582
▁games	-11.5582
▁zve	-11.5585
▁orchestr	-11.5585
▁uk	-11.5586
▁odnesl	-11.5587
▁čínská	-11.5588
▁veliký	-11.5589
▁ry	-11.5589
▁vyznamenání	-11.559
▁úseky	-11.5591
▁kvalitnější	-11.5592
plynul	-11.5593
▁vnímání	-11.5595
▁rizikové	-11.5596
▁třída	-11.5597
▁úřadem	-11.5598
▁pozval	-11.5599
▁argumentoval	-11.5601
ickými	-11.5601
▁lis	-11.5602
▁vítězů	-11.5602
▁náboženské	-11.5604
▁nebezpečná	-11.5604
hru	-11.5604
▁úmyslu	-11.5604
▁děkan	-11.5604
▁zčásti	-11.5604
▁obojí	-11.5604
▁nepřijde	-11.5605
▁úkony	-11.5606
▁trvání	-11.5606
▁kruhu	-11.5606
▁vynesl	-11.5607
▁našimi	-11.5608
▁senátní	-11.5609
▁kara	-11.561
vím	-11.5612
▁vánočních	-11.5612
▁udělil	-11.5613
▁kotle	-11.5613
dne	-11.5614
▁uděláme	-11.5615
▁velitele	-11.5616
▁dovedl	-11.5617
rové	-11.5618
▁stavebním	-11.5618
▁vymyslel	-11.5619
plet	-11.5619
▁volant	-11.5619
▁domnívají	-11.562
▁problematiku	-11.562
▁ekonomického	-11.562
▁slovenská	-11.5621
▁těsto	-11.5621
žene	-11.5621
▁přátele	-11.5621
▁odlišný	-11.5622
film	-11.5623
valo	-11.5624
▁pomoct	-11.5625
lici	-11.5625
▁mladou	-11.5625
▁hazardu	-11.563
▁bezpečný	-11.563
▁budovou	-11.5631
▁samotném	-11.5631
▁libereckého	-11.5631
▁vydávat	-11.5632
advacetiletá	-11.5632
hlídal	-11.5633
▁hvězdou	-11.5633
▁poznatky	-11.5633
▁tamních	-11.5634
dan	-11.5634
▁kamil	-11.5635
▁boston	-11.5635
▁schválil	-11.5636
▁schůzka	-11.5636
▁šo	-11.5636
▁polit	-11.5639
▁ppf	-11.5639
vad	-11.5639
▁kompaktní	-11.564
▁středočeského	-11.5641
▁spotřebitelů	-11.5642
▁závodech	-11.5642
hro	-11.5643
▁ul	-11.5644
▁tradičním	-11.5645
▁nádob	-11.5645
▁speciálním	-11.5646
▁běžel	-11.5647
▁středního	-11.5647
▁vrb	-11.5647
lich	-11.5648
▁příčina	-11.5648
▁modrá	-11.565
▁sedl	-11.5651
▁vyvolala	-11.5651
▁zraněného	-11.5652
▁nokie	-11.5653
▁navigace	-11.5653
▁klobouk	-11.5653
▁nepodaří	-11.5653
▁železný	-11.5655
jejich	-11.5655
▁zdobí	-11.566
▁poprav	-11.5665
přestože	-11.5666
▁bojové	-11.5667
▁vlk	-11.5667
▁lež	-11.5668
▁karoserie	-11.5669
padl	-11.567
bývají	-11.5672
▁zvykem	-11.5673
▁dceři	-11.5673
▁nemohlo	-11.5675
▁analýzu	-11.5675
hraje	-11.5675
▁čtvrtém	-11.5676
ive	-11.5678
mailu	-11.5678
▁exministr	-11.5678
▁oddělen	-11.5679
▁nárůstu	-11.568
▁útvar	-11.5683
▁dít	-11.5686
▁loňských	-11.5688
▁demonstrantů	-11.5688
▁zaměstnavatelů	-11.5689
▁technickou	-11.569
▁čep	-11.569
▁úrazu	-11.569
tady	-11.5692
▁pardubického	-11.5693
tuje	-11.5695
▁ligu	-11.5698
▁bos	-11.57
▁současným	-11.57
▁amnestie	-11.5701
▁příznivce	-11.5701
▁sázavou	-11.5701
▁dětská	-11.5702
▁vnímají	-11.5702
▁válečných	-11.5703
▁velkému	-11.5704
▁pohyboval	-11.5704
▁terén	-11.5704
and	-11.5705
▁chodila	-11.5706
▁kalhot	-11.571
▁exkluzivní	-11.5711
▁sociálním	-11.5713
▁prohlížeč	-11.5714
▁zlomil	-11.5714
▁druž	-11.5714
▁dno	-11.5714
▁komár	-11.5717
▁zrychlení	-11.5718
▁výměně	-11.5719
▁diesel	-11.5721
▁úmyslně	-11.5722
ovní	-11.5723
▁malými	-11.5724
▁uznává	-11.5724
▁vlhkost	-11.5725
íková	-11.5725
▁lidský	-11.5726
ase	-11.5728
▁slovenských	-11.5728
▁přerušil	-11.5729
▁izraelský	-11.573
▁modelka	-11.5731
▁spravedlnost	-11.5731
▁dopustit	-11.5732
ert	-11.5733
▁met	-11.5733
▁obdobné	-11.5734
▁potrestal	-11.5734
▁teroristé	-11.5734
▁modernizaci	-11.5734
▁slavie	-11.5734
ině	-11.5734
▁školou	-11.5735
▁vyloučeno	-11.5736
▁znalců	-11.5736
▁praktický	-11.5737
▁kovové	-11.5738
▁kontrast	-11.5739
▁gro	-11.574
▁řádově	-11.5741
▁nevíte	-11.5742
▁autobusem	-11.5743
▁obe	-11.5743
▁bodem	-11.5744
▁párů	-11.5744
▁vypovídal	-11.5747
▁cap	-11.5748
klep	-11.5749
▁sezení	-11.5749
▁focení	-11.5751
▁senátoři	-11.5751
▁variantou	-11.5752
▁majetkové	-11.5753
▁účastnit	-11.5753
▁kalouska	-11.5753
▁úrokové	-11.5755
▁kras	-11.5757
▁vlast	-11.5758
▁výstřel	-11.5759
sazení	-11.5761
▁odstoupení	-11.5763
▁měnové	-11.5763
▁zvyšují	-11.5765
▁batoh	-11.5765
▁vlastními	-11.5765
▁zhodnocení	-11.5765
pojištěn	-11.5766
▁režii	-11.5767
▁nepřál	-11.5767
▁zahrál	-11.5767
▁stěžuje	-11.5767
▁smutné	-11.5767
▁vln	-11.5768
▁síni	-11.5769
▁placené	-11.5771
▁fran	-11.5774
▁tekutin	-11.5775
▁hojně	-11.5777
▁rozjet	-11.5777
▁důrazně	-11.5778
šim	-11.5781
▁eurotel	-11.5783
▁debut	-11.5783
▁tvůrčí	-11.5783
▁uhradit	-11.5783
▁ostatky	-11.5783
▁výchovy	-11.5784
▁prožívá	-11.5785
tre	-11.5786
ese	-11.5786
▁vyřeší	-11.5786
nickou	-11.5787
▁letadle	-11.5787
tter	-11.5789
▁fotoaparátu	-11.579
▁významným	-11.5792
komp	-11.5792
▁dopisy	-11.5792
lup	-11.5794
▁trpělivost	-11.5795
▁prohráli	-11.5795
vádí	-11.5798
▁dočasné	-11.5798
skočil	-11.5799
vrhl	-11.58
▁tvůrců	-11.58
▁šťastná	-11.58
▁charitativní	-11.58
▁balíčku	-11.58
▁jižním	-11.5801
▁nezajímá	-11.5801
▁jazyků	-11.5802
▁kapli	-11.5804
hád	-11.5806
ničky	-11.5808
▁nemusela	-11.5808
▁kalhoty	-11.5809
▁starají	-11.5809
▁zrak	-11.5809
▁zabere	-11.5809
▁stačil	-11.5811
▁přesnou	-11.5813
▁opustili	-11.5814
▁ozbrojené	-11.5814
▁odolnost	-11.5815
▁slep	-11.5816
▁podzemí	-11.5816
▁platnosti	-11.5817
▁shodou	-11.5817
▁vyjádřila	-11.5817
▁odjet	-11.5817
▁provozovatele	-11.5822
▁ratha	-11.5823
▁love	-11.5823
▁rudé	-11.5824
▁porážku	-11.5824
▁údajný	-11.5824
▁dekor	-11.5824
▁položil	-11.5824
▁neumím	-11.5824
▁mluvili	-11.5824
typ	-11.5825
▁prstů	-11.5825
nan	-11.5825
▁udržel	-11.5828
rozum	-11.5829
▁pláž	-11.5829
▁krk	-11.583
▁neshod	-11.583
itá	-11.5831
▁fol	-11.5832
▁zahájením	-11.5832
▁herman	-11.5832
▁vyh	-11.5833
▁běženců	-11.5833
▁pravicové	-11.5833
▁dvojnásobek	-11.5834
dělat	-11.5835
▁znaky	-11.5835
▁hotová	-11.5836
▁stylem	-11.5836
▁uvedených	-11.5837
▁opakuje	-11.5837
▁nejvýznamnější	-11.5837
▁udržuje	-11.5838
▁úpravě	-11.5839
▁mořské	-11.584
▁montáž	-11.584
▁budí	-11.5841
věřím	-11.5844
▁čekáme	-11.5844
▁desek	-11.5846
psal	-11.5847
▁těžkých	-11.5847
▁halu	-11.5848
▁odhalen	-11.5848
▁tref	-11.5849
▁barvách	-11.5849
▁lístek	-11.5849
▁odškodné	-11.585
▁účetnictví	-11.585
▁souvislost	-11.585
▁říše	-11.585
▁rob	-11.585
▁liška	-11.5851
áková	-11.5852
▁ochranný	-11.5853
latin	-11.5853
▁společném	-11.5853
▁vzrostla	-11.5855
▁použit	-11.5856
bách	-11.5857
▁nádrž	-11.5857
▁zvládli	-11.5857
ade	-11.5857
▁soukromého	-11.5862
▁jakuba	-11.5863
akce	-11.5864
▁utrpěla	-11.5864
▁indi	-11.5864
kového	-11.5865
▁odejde	-11.5865
rážel	-11.5865
▁provincie	-11.5866
▁hlubší	-11.5866
▁peugeot	-11.5866
▁družstva	-11.5866
▁vykonávat	-11.5866
▁věřil	-11.5867
▁obrana	-11.5867
▁efekty	-11.5868
▁brzo	-11.5868
▁manažerů	-11.587
▁rating	-11.587
▁knižní	-11.5871
▁udělají	-11.5871
jaké	-11.5871
cy	-11.5873
▁kyjev	-11.5873
▁oka	-11.5873
duš	-11.5875
sám	-11.5876
▁nepřed	-11.5876
chen	-11.5877
▁počin	-11.5879
tlu	-11.5879
▁nabídli	-11.5881
▁hlasovalo	-11.5881
ložení	-11.5881
▁obchvat	-11.5881
▁známým	-11.5882
▁odraz	-11.5882
▁dispečer	-11.5883
▁počáteční	-11.5883
▁popřípadě	-11.5883
▁kavárny	-11.5883
▁bezplatné	-11.5883
▁dlužník	-11.5883
▁zločinů	-11.5885
▁ukázky	-11.5886
▁duši	-11.5886
▁lázních	-11.5888
▁bílém	-11.589
klíč	-11.589
▁ča	-11.5892
▁prověřit	-11.5893
▁působící	-11.5894
▁spojí	-11.5895
▁chebu	-11.5896
▁nadstandardní	-11.5896
▁pilotů	-11.5896
▁chrámu	-11.5897
▁dopadla	-11.5897
▁hostující	-11.5897
▁lhůty	-11.5898
▁kontaktní	-11.5898
▁zjišťuje	-11.5899
▁hluboký	-11.5899
▁smůlu	-11.5899
▁soukromá	-11.5899
▁vyrazili	-11.59
kombin	-11.59
▁růže	-11.59
▁potrestán	-11.59
pán	-11.5901
ovek	-11.5901
▁byznysu	-11.5901
kázal	-11.5902
▁luž	-11.5902
▁střih	-11.5904
▁červeného	-11.5904
izován	-11.5905
▁činila	-11.5905
házel	-11.5907
▁registrační	-11.5907
▁národů	-11.591
▁letěl	-11.591
▁splácení	-11.591
▁moderního	-11.591
lom	-11.5911
pojil	-11.5911
▁chodníku	-11.5912
▁pavilon	-11.5915
▁donedávna	-11.5916
▁nádvoří	-11.5916
▁sídlišti	-11.5916
▁vypořádat	-11.5916
▁dočtete	-11.5916
▁pánové	-11.5917
▁rušení	-11.5917
▁zálivu	-11.5917
▁žadatelů	-11.5917
▁suma	-11.5918
▁běžném	-11.5921
▁napojen	-11.5921
▁gynekolog	-11.5922
▁tábory	-11.5922
eni	-11.5923
▁bla	-11.5925
▁koaličních	-11.5925
▁fotbalový	-11.5926
▁plastové	-11.5926
▁číslem	-11.5927
▁našly	-11.5929
▁starostů	-11.5929
ery	-11.5929
▁píší	-11.593
▁podpořili	-11.5931
▁prezentaci	-11.5933
▁velvyslance	-11.5933
▁vyrobené	-11.5934
způsob	-11.5936
▁pódiu	-11.5937
▁polní	-11.5939
volen	-11.5941
▁jakýkoliv	-11.5943
▁německou	-11.5943
▁přesněji	-11.5944
hla	-11.5945
▁poločase	-11.5946
stoj	-11.5948
hýb	-11.5948
pre	-11.5949
▁rozvíjet	-11.5949
▁amerika	-11.5949
▁službou	-11.5949
▁likvidace	-11.5949
▁pleť	-11.5949
▁češtině	-11.5949
▁téhož	-11.595
▁javor	-11.5951
ete	-11.5951
▁sci	-11.5952
▁pěkný	-11.5952
nevěr	-11.5953
▁ničení	-11.5953
▁švéd	-11.5955
▁zacházení	-11.5955
▁kameru	-11.5956
▁změnách	-11.5956
čísl	-11.5958
▁porušil	-11.5959
držoval	-11.5963
▁mali	-11.5963
▁sociolog	-11.5964
▁navrhnout	-11.5964
▁uveden	-11.5965
▁klání	-11.5965
▁benedikt	-11.5966
▁dohod	-11.5969
▁neoficiální	-11.597
▁veřejný	-11.597
▁podíleli	-11.5972
▁nízko	-11.5972
▁roberta	-11.5973
▁lepšímu	-11.5973
▁inzerát	-11.5975
píše	-11.5979
▁litvínov	-11.5979
▁příslušný	-11.5981
▁vyvolalo	-11.5982
▁chytrých	-11.5983
hánějí	-11.5983
▁jihlava	-11.5983
▁drama	-11.5983
pouštěl	-11.5984
▁rozumné	-11.5984
▁vládnoucí	-11.5984
▁obřad	-11.5985
▁olympijský	-11.5986
▁vzdušné	-11.5989
▁řidičům	-11.599
▁krátkém	-11.599
▁sovětské	-11.5991
▁wal	-11.5995
hánět	-11.5998
▁odporu	-11.5999
▁orientaci	-11.6
▁bilanci	-11.6
▁modern	-11.6
vku	-11.6002
▁vstřelil	-11.6003
▁kolín	-11.6003
▁podrobné	-11.6003
▁příbuzné	-11.6004
▁subjektů	-11.6004
▁vzájemný	-11.6004
▁ženami	-11.6004
▁fbi	-11.6005
▁severním	-11.6006
▁mrtvého	-11.6006
▁banku	-11.6006
bývá	-11.6006
áním	-11.6007
▁tělesné	-11.6008
▁ocitl	-11.6013
▁zákonné	-11.6014
▁mapu	-11.6014
▁ptát	-11.6015
▁vyjet	-11.6016
▁utrpení	-11.6017
stor	-11.6017
▁posteli	-11.6018
▁slunci	-11.6018
▁nedařilo	-11.6019
▁rakouský	-11.602
▁průběžné	-11.6022
▁pojistného	-11.6022
▁horizontu	-11.6023
▁loupež	-11.6023
▁plameny	-11.6025
▁zahrad	-11.6026
▁násilím	-11.6027
stále	-11.6027
▁založen	-11.6029
▁pohrozil	-11.603
▁výběrem	-11.603
▁začneme	-11.6031
enu	-11.6032
▁frekvence	-11.6033
▁nesmějí	-11.6033
▁zraněné	-11.6034
▁kvitová	-11.6034
▁zdravotnických	-11.6035
▁páru	-11.6035
▁aktivistů	-11.6035
tlačil	-11.6039
▁ok	-11.6039
álek	-11.6041
▁souhlasit	-11.6041
▁bok	-11.6042
▁pachatelů	-11.6042
▁pruhu	-11.605
▁literatury	-11.605
▁atrakce	-11.605
▁zpívat	-11.605
létá	-11.605
▁interaktivní	-11.605
▁vyžádala	-11.6051
▁unikl	-11.6054
▁časový	-11.6054
▁profilu	-11.6056
▁suv	-11.6056
▁konal	-11.6058
▁šéfové	-11.6059
áme	-11.6059
▁vybavené	-11.606
▁speciálního	-11.606
▁prožil	-11.606
▁zdravotníci	-11.6063
▁černém	-11.6064
▁jablonec	-11.6067
▁impuls	-11.6067
▁provizorní	-11.6067
▁privatizace	-11.6067
▁belgie	-11.6067
▁obzvlášť	-11.6067
▁skříň	-11.6068
▁advokáta	-11.6069
▁fla	-11.607
ího	-11.607
▁levice	-11.607
▁rovině	-11.6071
▁našemu	-11.6071
▁pěstování	-11.6075
▁balon	-11.6075
▁narozenin	-11.6076
ucha	-11.6077
▁pravém	-11.6078
▁kruh	-11.6079
▁donald	-11.6079
▁stávajících	-11.6081
▁česnek	-11.6083
▁naučí	-11.6084
▁existovat	-11.6084
▁nežádoucí	-11.6084
▁statisíce	-11.6084
▁prádlo	-11.6084
▁úplný	-11.6084
▁ukládá	-11.6085
icko	-11.6086
▁dráž	-11.6086
▁nepřežil	-11.6087
▁odhady	-11.6089
šov	-11.609
▁garant	-11.6092
▁odbornou	-11.6093
pír	-11.6094
▁formát	-11.6094
▁vědy	-11.6096
▁umístěna	-11.6098
▁vážnější	-11.61
▁renault	-11.61
▁medicíny	-11.6101
▁nedostanou	-11.6101
▁počínání	-11.6101
▁propagaci	-11.6101
▁posudky	-11.6101
▁zvážit	-11.6101
▁telegraph	-11.6101
▁sazky	-11.6101
▁poptávky	-11.6101
▁paliv	-11.6102
▁logo	-11.6102
▁židů	-11.6103
▁kritické	-11.6106
ivo	-11.6106
▁určí	-11.6109
▁diet	-11.6109
▁prohlídka	-11.611
▁ferrari	-11.6111
▁poškozený	-11.6111
▁vážný	-11.6112
▁plaz	-11.6112
▁večeře	-11.6112
▁elektronických	-11.6113
▁pochvaloval	-11.6113
▁porodní	-11.6114
rva	-11.6115
▁milán	-11.6116
▁šedé	-11.6116
▁poslech	-11.6117
▁okamura	-11.6118
▁zbyněk	-11.6118
▁muzikant	-11.612
▁balkon	-11.6121
▁evropským	-11.6121
▁you	-11.6123
▁nechodí	-11.6123
▁mod	-11.6124
▁prosazuje	-11.6124
▁jac	-11.6126
▁výbavy	-11.6126
éra	-11.6127
▁kabin	-11.6127
cle	-11.6129
nez	-11.6129
▁kir	-11.6129
▁arabských	-11.6131
▁thomas	-11.6133
sedl	-11.6133
▁hospod	-11.6133
sche	-11.6134
▁vztahuje	-11.6134
stru	-11.6135
▁hokejisté	-11.6138
▁beran	-11.6138
▁hoch	-11.6139
▁vyslovil	-11.6141
zda	-11.6141
▁jihoafrické	-11.6142
eny	-11.6144
▁nedostala	-11.6145
▁atentátu	-11.6146
ló	-11.6147
▁náčelník	-11.6147
bírají	-11.6148
▁živ	-11.6149
▁dozor	-11.6149
hli	-11.6149
▁nejdéle	-11.6152
▁havaroval	-11.6152
▁choroby	-11.6153
▁zodpovědný	-11.6153
▁pep	-11.6154
▁liberecké	-11.6156
▁reálný	-11.6156
▁počká	-11.6157
▁umělec	-11.6163
ern	-11.6163
▁milost	-11.6165
▁klíčový	-11.6165
▁bis	-11.6166
vám	-11.6167
▁vladislav	-11.6169
▁nerad	-11.6169
db	-11.6169
▁dočkat	-11.617
▁vyjadřuje	-11.617
▁rpg	-11.617
▁čtvrtě	-11.6171
zar	-11.6171
▁neznal	-11.6171
▁léčit	-11.6172
▁čínského	-11.6173
▁představovat	-11.6176
▁vzrostly	-11.6177
▁william	-11.6178
sse	-11.6179
▁jezdili	-11.6179
▁mrtvý	-11.618
▁zařízením	-11.618
▁podezřelého	-11.618
▁překladu	-11.6181
▁útokům	-11.6185
▁sekretář	-11.6186
▁pražskou	-11.6187
▁úzce	-11.6187
▁prezidentský	-11.6191
▁střechou	-11.6191
▁provedla	-11.6192
▁odhadu	-11.6193
telné	-11.6194
▁úžasný	-11.6194
ovník	-11.6195
▁špatném	-11.6195
▁myši	-11.6196
▁budoucího	-11.6198
▁potřebných	-11.6198
eu	-11.6199
▁proslul	-11.6199
▁přidali	-11.62
▁mizí	-11.6201
▁mužům	-11.6204
▁maďarska	-11.6204
▁četl	-11.6204
▁mari	-11.6204
▁cenově	-11.6205
▁větve	-11.6206
▁spot	-11.6206
▁zánět	-11.6206
▁paláci	-11.6207
▁věříme	-11.6208
▁směsi	-11.6209
▁ohni	-11.621
▁založené	-11.621
sadit	-11.6211
kovský	-11.6213
▁opustí	-11.6215
▁nesl	-11.6216
pul	-11.6218
▁udělení	-11.6218
rum	-11.6219
▁tvary	-11.6219
▁vlastnil	-11.6219
▁církví	-11.6221
▁zájmem	-11.6221
▁užitečné	-11.6221
▁kanady	-11.6221
hub	-11.6221
▁zápal	-11.6221
▁širokou	-11.6222
čkem	-11.6223
▁kredit	-11.6224
▁ovlivněn	-11.6224
▁nedojde	-11.6227
eři	-11.6227
▁dokola	-11.6229
▁izraeli	-11.6232
psaný	-11.6232
▁předpokládám	-11.6233
▁spotřebitele	-11.6234
uru	-11.6236
▁pouliční	-11.6238
▁softwaru	-11.6238
▁tendenci	-11.6238
▁zkontrolovat	-11.6238
▁výuky	-11.6238
▁jakkoliv	-11.6239
▁stovka	-11.624
▁kamaráda	-11.6242
▁horor	-11.6243
▁cibul	-11.6246
og	-11.6247
▁skrz	-11.6247
▁daného	-11.625
▁sportovního	-11.6251
pali	-11.6252
▁live	-11.6252
▁ptáků	-11.6253
▁nebýt	-11.6254
▁přestat	-11.6255
▁barrandov	-11.6255
▁komedie	-11.6255
▁pomalejší	-11.6255
▁jersey	-11.6255
▁úmysl	-11.6256
▁odstupem	-11.6256
informace	-11.6256
▁lanovky	-11.6256
▁památkové	-11.6257
▁příchodem	-11.626
▁kvalitou	-11.6261
▁palivo	-11.6261
▁nemocný	-11.6262
▁daňového	-11.6262
▁harry	-11.6263
ivou	-11.6264
▁janu	-11.6264
▁neustálé	-11.6266
▁jezdec	-11.6266
▁osad	-11.6268
▁znalce	-11.6269
▁bell	-11.627
▁poradenství	-11.6272
▁skutečnou	-11.6272
jel	-11.6277
trou	-11.6277
▁překročení	-11.6277
▁stol	-11.6279
▁získané	-11.6282
▁ruským	-11.6283
▁štět	-11.6284
▁odsouzený	-11.6286
▁nechápu	-11.6286
tiky	-11.6286
▁praktiky	-11.6286
edit	-11.6286
▁nadcházející	-11.6287
▁spustí	-11.6287
▁zákoně	-11.6289
▁nezískal	-11.629
▁francouzských	-11.629
▁nechají	-11.629
▁mořem	-11.629
▁chaos	-11.6291
▁pepř	-11.6291
▁meziříčí	-11.6291
▁přehrávání	-11.6292
▁vesmírné	-11.6292
což	-11.6296
▁vir	-11.6297
▁střela	-11.6297
▁pac	-11.6298
▁nepovedlo	-11.6299
▁letecký	-11.63
▁jádra	-11.6301
▁tlustý	-11.6301
▁činitele	-11.6302
▁kurt	-11.6304
▁marta	-11.6304
▁migrační	-11.6304
▁neschopnosti	-11.6305
▁pevnost	-11.6307
▁vyvíjet	-11.6307
▁údržby	-11.6307
▁kanadě	-11.6307
▁mzdu	-11.6307
▁psycholožka	-11.6307
▁nemocniční	-11.6307
▁umožnil	-11.6308
▁rezervace	-11.6308
▁vydělal	-11.631
▁stopu	-11.6312
pouštějí	-11.6312
▁egyptě	-11.6313
▁nezdá	-11.6314
▁teroristů	-11.6314
▁postavou	-11.6317
árny	-11.6317
▁marcela	-11.6317
▁pardubický	-11.6318
▁notebook	-11.6322
vláda	-11.6323
▁sklon	-11.6323
▁stanovena	-11.6323
▁exekutor	-11.6324
char	-11.6324
▁oh	-11.6324
ony	-11.6324
▁herců	-11.6325
▁dálku	-11.6326
▁perl	-11.6326
▁jean	-11.6327
▁fakulta	-11.6329
▁náhoda	-11.6329
▁slad	-11.6331
▁přistoupit	-11.6333
▁pater	-11.6333
pletl	-11.6334
▁kladen	-11.6336
▁ztratili	-11.6337
▁uvolnil	-11.6338
šta	-11.6338
sal	-11.6339
▁resp	-11.6339
▁formulář	-11.634
říká	-11.634
opat	-11.6341
hřát	-11.6341
▁atmosféry	-11.6342
▁komentuje	-11.6342
▁podmínkám	-11.6342
▁vysílat	-11.6342
▁flo	-11.6342
▁žár	-11.6343
▁díle	-11.6343
▁vysílač	-11.6343
▁sedmnácti	-11.6344
▁sejde	-11.6346
▁archivován	-11.6347
▁jakýkoli	-11.6352
▁táhne	-11.6353
[...]
